{
  "version": "1.0",
  "truncation": null,
  "padding": null,
  "added_tokens": [
    {
      "id": 0,
      "content": ">>TITLE<<",
      "single_word": false,
      "lstrip": false,
      "rstrip": false,
      "normalized": false,
      "special": true
    },
    {
      "id": 1,
      "content": ">>ABSTRACT<<",
      "single_word": false,
      "lstrip": false,
      "rstrip": false,
      "normalized": false,
      "special": true
    },
    {
      "id": 2,
      "content": ">>INTRODUCTION<<",
      "single_word": false,
      "lstrip": false,
      "rstrip": false,
      "normalized": false,
      "special": true
    },
    {
      "id": 3,
      "content": ">>SUMMARY<<",
      "single_word": false,
      "lstrip": false,
      "rstrip": false,
      "normalized": false,
      "special": true
    },
    {
      "id": 4,
      "content": ">>COMMENT<<",
      "single_word": false,
      "lstrip": false,
      "rstrip": false,
      "normalized": false,
      "special": true
    },
    {
      "id": 5,
      "content": ">>ANSWER<<",
      "single_word": false,
      "lstrip": false,
      "rstrip": false,
      "normalized": false,
      "special": true
    },
    {
      "id": 6,
      "content": ">>QUESTION<<",
      "single_word": false,
      "lstrip": false,
      "rstrip": false,
      "normalized": false,
      "special": true
    },
    {
      "id": 7,
      "content": ">>DOMAIN<<",
      "single_word": false,
      "lstrip": false,
      "rstrip": false,
      "normalized": false,
      "special": true
    },
    {
      "id": 8,
      "content": ">>PREFIX<<",
      "single_word": false,
      "lstrip": false,
      "rstrip": false,
      "normalized": false,
      "special": true
    },
    {
      "id": 9,
      "content": ">>SUFFIX<<",
      "single_word": false,
      "lstrip": false,
      "rstrip": false,
      "normalized": false,
      "special": true
    },
    {
      "id": 10,
      "content": ">>MIDDLE<<",
      "single_word": false,
      "lstrip": false,
      "rstrip": false,
      "normalized": false,
      "special": true
    },
    {
      "id": 11,
      "content": "<|endoftext|>",
      "single_word": false,
      "lstrip": false,
      "rstrip": false,
      "normalized": false,
      "special": true
    }
  ],
  "normalizer": null,
  "pre_tokenizer": {
    "type": "Sequence",
    "pretokenizers": [
      {
        "type": "Punctuation",
        "behavior": "Contiguous"
      },
      {
        "type": "ByteLevel",
        "add_prefix_space": false,
        "trim_offsets": true,
        "use_regex": true
      },
      {
        "type": "Digits",
        "individual_digits": false
      },
      {
        "type": "Split",
        "pattern": {
          "Regex": "[0-9][0-9][0-9]"
        },
        "behavior": "Isolated",
        "invert": false
      }
    ]
  },
  "post_processor": null,
  "decoder": {
    "type": "ByteLevel",
    "add_prefix_space": true,
    "trim_offsets": true,
    "use_regex": true
  },
  "model": {
    "type": "BPE",
    "dropout": null,
    "unk_token": null,
    "continuing_subword_prefix": null,
    "end_of_word_suffix": null,
    "fuse_unk": false,
    "vocab": {
      ">>TITLE<<": 0,
      ">>ABSTRACT<<": 1,
      ">>INTRODUCTION<<": 2,
      ">>SUMMARY<<": 3,
      ">>COMMENT<<": 4,
      ">>ANSWER<<": 5,
      ">>QUESTION<<": 6,
      ">>DOMAIN<<": 7,
      ">>PREFIX<<": 8,
      ">>SUFFIX<<": 9,
      ">>MIDDLE<<": 10,
      "<|endoftext|>": 11,
      "!": 12,
      "\"": 13,
      "#": 14,
      "$": 15,
      "%": 16,
      "&": 17,
      "'": 18,
      "(": 19,
      ")": 20,
      "*": 21,
      "+": 22,
      ",": 23,
      "-": 24,
      ".": 25,
      "/": 26,
      "0": 27,
      "1": 28,
      "2": 29,
      "3": 30,
      "4": 31,
      "5": 32,
      "6": 33,
      "7": 34,
      "8": 35,
      "9": 36,
      ":": 37,
      ";": 38,
      "<": 39,
      "=": 40,
      ">": 41,
      "?": 42,
      "@": 43,
      "A": 44,
      "B": 45,
      "C": 46,
      "D": 47,
      "E": 48,
      "F": 49,
      "G": 50,
      "H": 51,
      "I": 52,
      "J": 53,
      "K": 54,
      "L": 55,
      "M": 56,
      "N": 57,
      "O": 58,
      "P": 59,
      "Q": 60,
      "R": 61,
      "S": 62,
      "T": 63,
      "U": 64,
      "V": 65,
      "W": 66,
      "X": 67,
      "Y": 68,
      "Z": 69,
      "[": 70,
      "\\": 71,
      "]": 72,
      "^": 73,
      "_": 74,
      "`": 75,
      "a": 76,
      "b": 77,
      "c": 78,
      "d": 79,
      "e": 80,
      "f": 81,
      "g": 82,
      "h": 83,
      "i": 84,
      "j": 85,
      "k": 86,
      "l": 87,
      "m": 88,
      "n": 89,
      "o": 90,
      "p": 91,
      "q": 92,
      "r": 93,
      "s": 94,
      "t": 95,
      "u": 96,
      "v": 97,
      "w": 98,
      "x": 99,
      "y": 100,
      "z": 101,
      "{": 102,
      "|": 103,
      "}": 104,
      "~": 105,
      "¡": 106,
      "¢": 107,
      "£": 108,
      "¤": 109,
      "¥": 110,
      "¦": 111,
      "§": 112,
      "¨": 113,
      "©": 114,
      "ª": 115,
      "«": 116,
      "¬": 117,
      "®": 118,
      "¯": 119,
      "°": 120,
      "±": 121,
      "²": 122,
      "³": 123,
      "´": 124,
      "µ": 125,
      "¶": 126,
      "·": 127,
      "¸": 128,
      "¹": 129,
      "º": 130,
      "»": 131,
      "¼": 132,
      "½": 133,
      "¾": 134,
      "¿": 135,
      "Â": 136,
      "Ã": 137,
      "Ä": 138,
      "Å": 139,
      "Æ": 140,
      "Ç": 141,
      "È": 142,
      "É": 143,
      "Ê": 144,
      "Ë": 145,
      "Ì": 146,
      "Í": 147,
      "Î": 148,
      "Ï": 149,
      "Ð": 150,
      "Ñ": 151,
      "Ò": 152,
      "Ó": 153,
      "Ô": 154,
      "Õ": 155,
      "Ö": 156,
      "×": 157,
      "Ø": 158,
      "Ù": 159,
      "Ú": 160,
      "Û": 161,
      "Ü": 162,
      "Ý": 163,
      "Þ": 164,
      "ß": 165,
      "à": 166,
      "á": 167,
      "â": 168,
      "ã": 169,
      "ä": 170,
      "å": 171,
      "æ": 172,
      "ç": 173,
      "è": 174,
      "é": 175,
      "ê": 176,
      "ë": 177,
      "ì": 178,
      "í": 179,
      "î": 180,
      "ï": 181,
      "ð": 182,
      "ñ": 183,
      "ó": 184,
      "ô": 185,
      "Ā": 186,
      "ā": 187,
      "Ă": 188,
      "Ć": 189,
      "ć": 190,
      "Ĉ": 191,
      "ĉ": 192,
      "Ċ": 193,
      "Č": 194,
      "č": 195,
      "Ď": 196,
      "ď": 197,
      "Đ": 198,
      "Ē": 199,
      "Ę": 200,
      "Ě": 201,
      "ě": 202,
      "ğ": 203,
      "Ġ": 204,
      "ġ": 205,
      "Ģ": 206,
      "ģ": 207,
      "Ĥ": 208,
      "ĥ": 209,
      "Ħ": 210,
      "ħ": 211,
      "Ĩ": 212,
      "ĩ": 213,
      "Ī": 214,
      "ī": 215,
      "Ĭ": 216,
      "ĭ": 217,
      "Į": 218,
      "į": 219,
      "İ": 220,
      "ı": 221,
      "Ĳ": 222,
      "ĳ": 223,
      "Ĵ": 224,
      "ĵ": 225,
      "Ķ": 226,
      "ķ": 227,
      "ĸ": 228,
      "Ĺ": 229,
      "ĺ": 230,
      "Ļ": 231,
      "ļ": 232,
      "Ľ": 233,
      "ľ": 234,
      "Ŀ": 235,
      "ŀ": 236,
      "Ł": 237,
      "ł": 238,
      "Ń": 239,
      "Ġt": 240,
      "Ġa": 241,
      "in": 242,
      "he": 243,
      "re": 244,
      "on": 245,
      "er": 246,
      "Ġs": 247,
      "Ġthe": 248,
      "at": 249,
      "en": 250,
      "Ġw": 251,
      "or": 252,
      "Ġc": 253,
      "ou": 254,
      "es": 255,
      "it": 256,
      "an": 257,
      "ĠĠ": 258,
      "is": 259,
      "Ġp": 260,
      "Ġf": 261,
      "Ġb": 262,
      "ing": 263,
      "Ġo": 264,
      "Ġd": 265,
      "Ġm": 266,
      "Ġan": 267,
      "al": 268,
      "ed": 269,
      "ar": 270,
      "Ġto": 271,
      "Ġin": 272,
      "Ġand": 273,
      "le": 274,
      "Ġof": 275,
      "ic": 276,
      "as": 277,
      "Ġh": 278,
      "om": 279,
      "ion": 280,
      "Ġth": 281,
      "Ġl": 282,
      "âĢ": 283,
      "ent": 284,
      "il": 285,
      "el": 286,
      "Ġn": 287,
      "st": 288,
      "et": 289,
      "ro": 290,
      "Ġy": 291,
      "Ġre": 292,
      "Ġe": 293,
      "Ġg": 294,
      "ĠI": 295,
      "ĠĠĠĠ": 296,
      "ct": 297,
      "ve": 298,
      "Ġyou": 299,
      "id": 300,
      "ĠT": 301,
      "ĠS": 302,
      "ot": 303,
      "Ġis": 304,
      "Ġu": 305,
      "im": 306,
      "ow": 307,
      "ad": 308,
      "ly": 309,
      "ac": 310,
      "am": 311,
      "Ġfor": 312,
      "Ġon": 313,
      "Ġbe": 314,
      "ol": 315,
      "ay": 316,
      "ĠA": 317,
      "ig": 318,
      "ĠC": 319,
      "ut": 320,
      "se": 321,
      "ver": 322,
      "ur": 323,
      "Ġst": 324,
      "Ġthat": 325,
      "ation": 326,
      "ch": 327,
      "ith": 328,
      "âĢĻ": 329,
      "ir": 330,
      "ĠM": 331,
      "Ġhe": 332,
      "ce": 333,
      "Ġit": 334,
      "Ġwith": 335,
      "Ġde": 336,
      "ĠP": 337,
      "ul": 338,
      "Ġal": 339,
      "if": 340,
      "ĠB": 341,
      "ter": 342,
      "nd": 343,
      "ra": 344,
      "Ġas": 345,
      "qu": 346,
      "Ġcon": 347,
      "Ġwh": 348,
      "od": 349,
      "ill": 350,
      "out": 351,
      "Ġpro": 352,
      "ag": 353,
      "Ġv": 354,
      "est": 355,
      "ke": 356,
      "em": 357,
      "ers": 358,
      "us": 359,
      "Ġwe": 360,
      "ĠD": 361,
      "Ġare": 362,
      "os": 363,
      "pp": 364,
      "ri": 365,
      "ab": 366,
      "ĠW": 367,
      "ess": 368,
      "un": 369,
      "ĠH": 370,
      "Ġcom": 371,
      "her": 372,
      "and": 373,
      "Ġha": 374,
      "ate": 375,
      "ore": 376,
      "our": 377,
      "ĠF": 378,
      "Ġor": 379,
      "ld": 380,
      "um": 381,
      "ĠR": 382,
      "ist": 383,
      "ant": 384,
      "Ġse": 385,
      "ort": 386,
      "op": 387,
      "Ġat": 388,
      "ht": 389,
      "ĠThe": 390,
      "Ġne": 391,
      "Ġr": 392,
      "ĠL": 393,
      "res": 394,
      "Ġex": 395,
      "ie": 396,
      "rom": 397,
      "Ġwas": 398,
      "ĠE": 399,
      "oc": 400,
      "ĠG": 401,
      "Ġyour": 402,
      "art": 403,
      "nt": 404,
      "Ġsu": 405,
      "ment": 406,
      "ĠĠĠĠĠĠĠĠ": 407,
      "ity": 408,
      "ĠN": 409,
      "ect": 410,
      "ust": 411,
      "ain": 412,
      "Ġhave": 413,
      "Ġthis": 414,
      "end": 415,
      "Ġnot": 416,
      "Ġle": 417,
      "Ġcan": 418,
      "iv": 419,
      "th": 420,
      "Ġsh": 421,
      "ive": 422,
      "20": 423,
      "ies": 424,
      "Ġch": 425,
      "ight": 426,
      "Ġfrom": 427,
      "Ġj": 428,
      "Ġk": 429,
      "ould": 430,
      "Ġby": 431,
      "ĠO": 432,
      "ell": 433,
      "ost": 434,
      "ard": 435,
      "all": 436,
      "ome": 437,
      "ine": 438,
      "ud": 439,
      "red": 440,
      "Ġdo": 441,
      "Ġab": 442,
      "oo": 443,
      "pt": 444,
      "Ġen": 445,
      "ally": 446,
      "Ġpl": 447,
      "ack": 448,
      "pe": 449,
      "ge": 450,
      "Ġwill": 451,
      "ak": 452,
      "Ġqu": 453,
      "Ġme": 454,
      "Ġall": 455,
      "ide": 456,
      "ast": 457,
      "ure": 458,
      "Ġwor": 459,
      "rou": 460,
      "per": 461,
      "ĠJ": 462,
      "pl": 463,
      "te": 464,
      "Ã©": 465,
      "ĠĠĠ": 466,
      "ind": 467,
      "og": 468,
      "ff": 469,
      "ial": 470,
      "Ġgo": 471,
      "are": 472,
      "hen": 473,
      "ice": 474,
      "iz": 475,
      "Ġun": 476,
      "Ġus": 477,
      "Ġtr": 478,
      "ich": 479,
      "Ġbut": 480,
      "one": 481,
      "ions": 482,
      "ear": 483,
      "age": 484,
      "Ġso": 485,
      "âĢĿ": 486,
      "The": 487,
      "âĢľ": 488,
      "Ġad": 489,
      "ook": 490,
      "Ġmy": 491,
      "able": 492,
      "ĠU": 493,
      "ia": 494,
      "Ġout": 495,
      "ip": 496,
      "ake": 497,
      "ous": 498,
      "ame": 499,
      ">>": 500,
      "ans": 501,
      "ther": 502,
      "<<": 503,
      "Ġhas": 504,
      "ue": 505,
      "Ġthey": 506,
      "Ġim": 507,
      "Ġcomp": 508,
      "gh": 509,
      "Ġup": 510,
      "act": 511,
      "ime": 512,
      "..": 513,
      "Ġcl": 514,
      "ong": 515,
      "cc": 516,
      "orm": 517,
      "ib": 518,
      "very": 519,
      "Ġmore": 520,
      "ite": 521,
      "ated": 522,
      "ap": 523,
      "ass": 524,
      "Ġtheir": 525,
      "ĠTh": 526,
      "00": 527,
      "ub": 528,
      "ĠIn": 529,
      "so": 530,
      "ĠK": 531,
      "Ġone": 532,
      "ire": 533,
      "to": 534,
      "ace": 535,
      "ike": 536,
      "Ġcont": 537,
      "ep": 538,
      "cl": 539,
      "au": 540,
      "ance": 541,
      "ult": 542,
      "av": 543,
      "Ġabout": 544,
      "Ġhis": 545,
      "Ġman": 546,
      "ry": 547,
      "du": 548,
      "ail": 549,
      "ks": 550,
      "ĠY": 551,
      "ber": 552,
      "ĠV": 553,
      "ach": 554,
      "ase": 555,
      "ĊĠĠĠĠĠĠĠĠ": 556,
      "Ġsp": 557,
      "ile": 558,
      "Ġper": 559,
      "Ġres": 560,
      "ĊĠĠĠĠ": 561,
      "ign": 562,
      "--": 563,
      "Ġte": 564,
      "Ġif": 565,
      "Ġfe": 566,
      "ll": 567,
      "Ġour": 568,
      "Ġwho": 569,
      "Ġapp": 570,
      "ations": 571,
      "Ġla": 572,
      "Ġher": 573,
      "ĠSt": 574,
      "reat": 575,
      "ru": 576,
      "Ġget": 577,
      "MA": 578,
      "ne": 579,
      "ere": 580,
      "Ġsa": 581,
      "ary": 582,
      "ction": 583,
      "ven": 584,
      "Ġwhich": 585,
      "ents": 586,
      "now": 587,
      "ick": 588,
      "ely": 589,
      "form": 590,
      "ond": 591,
      "ays": 592,
      "Ġdis": 593,
      "ens": 594,
      "ord": 595,
      "Ġsome": 596,
      "Ġoff": 597,
      "GE": 598,
      "Ġother": 599,
      "âĢĵ": 600,
      "Ġtime": 601,
      "int": 602,
      "ress": 603,
      "ical": 604,
      "ĠIt": 605,
      "Ġlike": 606,
      "Ġany": 607,
      "ence": 608,
      "ree": 609,
      "port": 610,
      "Ġpe": 611,
      "Ġthem": 612,
      "ount": 613,
      "Ġalso": 614,
      "erv": 615,
      "ove": 616,
      "Ġdes": 617,
      "Ġhad": 618,
      "Ġar": 619,
      "ov": 620,
      "ings": 621,
      "Ġpart": 622,
      "IMA": 623,
      "IMAGE": 624,
      "Ġag": 625,
      "201": 626,
      "Ġnew": 627,
      "ark": 628,
      "Ġthere": 629,
      "ob": 630,
      "Ġwould": 631,
      "ose": 632,
      "Ġwork": 633,
      "Ġpre": 634,
      "Ġwhen": 635,
      "ĠCh": 636,
      "Ġwhat": 637,
      "ition": 638,
      "ink": 639,
      "vel": 640,
      "Ġsc": 641,
      "ang": 642,
      "ck": 643,
      "ors": 644,
      "Ġjust": 645,
      "Ġwere": 646,
      "Ġro": 647,
      "Ġover": 648,
      "Ġyear": 649,
      "Ġbeen": 650,
      "lic": 651,
      "ild": 652,
      "Ġam": 653,
      "urn": 654,
      "Ġknow": 655,
      "Ġrec": 656,
      "Ġund": 657,
      "Ġno": 658,
      "Ġpr": 659,
      "19": 660,
      "Ġthan": 661,
      "Ġneed": 662,
      "ĉĉ": 663,
      "ound": 664,
      "ood": 665,
      "vers": 666,
      "ople": 667,
      ");": 668,
      "ont": 669,
      "own": 670,
      "Ġbl": 671,
      "Ġhow": 672,
      "Ġbec": 673,
      "Ġshe": 674,
      "ory": 675,
      "Ġacc": 676,
      "oy": 677,
      "ish": 678,
      "Ġinto": 679,
      "wn": 680,
      "anc": 681,
      "ade": 682,
      "here": 683,
      "ual": 684,
      "oll": 685,
      "ert": 686,
      "ater": 687,
      "mer": 688,
      "xt": 689,
      "ons": 690,
      ").": 691,
      "Ġpeople": 692,
      "old": 693,
      "ft": 694,
      "itt": 695,
      "10": 696,
      "elf": 697,
      "we": 698,
      "irst": 699,
      "iff": 700,
      "Ġits": 701,
      "fter": 702,
      "ĠWe": 703,
      "ause": 704,
      "ec": 705,
      "Ġlook": 706,
      "ĠHe": 707,
      "lp": 708,
      "ple": 709,
      "get": 710,
      "Ġbet": 711,
      "igh": 712,
      "Ġcomm": 713,
      "Ġact": 714,
      "ian": 715,
      "ious": 716,
      "Ġmake": 717,
      "uch": 718,
      "pec": 719,
      "iew": 720,
      "ful": 721,
      "hed": 722,
      "Ġpo": 723,
      "Ġmay": 724,
      "Ġz": 725,
      "ject": 726,
      "tern": 727,
      "eth": 728,
      "Ġwant": 729,
      "Ġind": 730,
      "clud": 731,
      "Ġem": 732,
      "Ġhelp": 733,
      "gr": 734,
      "ĠThis": 735,
      "Ġonly": 736,
      "Ġadd": 737,
      "Ġfl": 738,
      "Ġco": 739,
      "iss": 740,
      "ning": 741,
      "ĊĠĠĠ": 742,
      "Ġback": 743,
      "ise": 744,
      "Ġuse": 745,
      "Ġsaid": 746,
      "ph": 747,
      "Ġtw": 748,
      "Ġcons": 749,
      "ates": 750,
      "rough": 751,
      "io": 752,
      "Ġbu": 753,
      "ough": 754,
      "Th": 755,
      "ific": 756,
      "enc": 757,
      "Ġmost": 758,
      "Ġevery": 759,
      "Ġsee": 760,
      "ef": 761,
      "round": 762,
      "**": 763,
      "ock": 764,
      "Ġcould": 765,
      "ath": 766,
      "ĠÃ": 767,
      "les": 768,
      "lect": 769,
      "),": 770,
      "ient": 771,
      "Ġfirst": 772,
      "ating": 773,
      "Ġdiff": 774,
      "ä¸": 775,
      "ren": 776,
      "ric": 777,
      "Ġprov": 778,
      "Ġwell": 779,
      "In": 780,
      "ĠYou": 781,
      "Ġprodu": 782,
      "Ġthese": 783,
      "row": 784,
      "ata": 785,
      "Ġdi": 786,
      "ty": 787,
      "Ġthrough": 788,
      "ss": 789,
      "Ġatt": 790,
      "âĢĶ": 791,
      "oss": 792,
      "erson": 793,
      "Ġdon": 794,
      "yst": 795,
      "ew": 796,
      "Ġel": 797,
      "EN": 798,
      "Ġsupp": 799,
      "Ġche": 800,
      "Ġhim": 801,
      "ting": 802,
      "rit": 803,
      "Ġrel": 804,
      "Ġph": 805,
      "ments": 806,
      "ik": 807,
      "Ġshould": 808,
      "Ġbr": 809,
      "cess": 810,
      "vent": 811,
      "ier": 812,
      "Ġunder": 813,
      "ĠRe": 814,
      "pect": 815,
      "Ġke": 816,
      "Ġtra": 817,
      "Ġway": 818,
      "bs": 819,
      "Ġass": 820,
      "Ġinc": 821,
      "Ġgood": 822,
      "ife": 823,
      "Ġreg": 824,
      "oth": 825,
      "Ġdid": 826,
      "ities": 827,
      "Ġcol": 828,
      "Ġvery": 829,
      "Ġeven": 830,
      "Ġserv": 831,
      "Ġthen": 832,
      "Ġent": 833,
      "erm": 834,
      "ble": 835,
      "Ġi": 836,
      "Ġinclud": 837,
      "ull": 838,
      "ys": 839,
      "ible": 840,
      "ices": 841,
      "up": 842,
      "ily": 843,
      "Ġsm": 844,
      "ement": 845,
      "az": 846,
      "Ġtwo": 847,
      "Ġret": 848,
      "Ġnow": 849,
      "Ġrem": 850,
      "als": 851,
      "Ġafter": 852,
      "200": 853,
      "ĊĠĠĠĠĠĠĠ": 854,
      "omm": 855,
      "olog": 856,
      "CO": 857,
      "fore": 858,
      "ÃŃ": 859,
      "Ġmany": 860,
      ".\"": 861,
      "Ġfin": 862,
      "ange": 863,
      "Ġthink": 864,
      "day": 865,
      "Ġmuch": 866,
      "ener": 867,
      "und": 868,
      "ool": 869,
      "aking": 870,
      "its": 871,
      "ility": 872,
      "ĠPro": 873,
      "Ġac": 874,
      "Ġbecause": 875,
      "ures": 876,
      "Ġque": 877,
      "ied": 878,
      "ular": 879,
      "//": 880,
      "Ġwhere": 881,
      "ĠWh": 882,
      "Ġgr": 883,
      "Ġplay": 884,
      "Ġgu": 885,
      "Ġet": 886,
      "Ġexper": 887,
      "line": 888,
      "Ġset": 889,
      "iness": 890,
      "ract": 891,
      "Ġtoo": 892,
      "Ġstud": 893,
      "Ġright": 894,
      "ale": 895,
      "ower": 896,
      "ĠUn": 897,
      "âĢ¦": 898,
      "ĠAnd": 899,
      "ystem": 900,
      "Ġdown": 901,
      "Ġimp": 902,
      "Ġinst": 903,
      "ng": 904,
      "202": 905,
      "Ġinv": 906,
      "ize": 907,
      "any": 908,
      "Ġyears": 909,
      "Ġstart": 910,
      "ght": 911,
      "ased": 912,
      "Ġsur": 913,
      "Ġgreat": 914,
      "ts": 915,
      "Ġlong": 916,
      "ward": 917,
      "hes": 918,
      "Ġint": 919,
      "ublic": 920,
      "Ġeff": 921,
      "Ġsec": 922,
      "Ġperson": 923,
      "ank": 924,
      "ek": 925,
      "Ġread": 926,
      "Ġav": 927,
      "12": 928,
      "ENT": 929,
      "ug": 930,
      "Ġfind": 931,
      "ience": 932,
      "ident": 933,
      "Ġdel": 934,
      "Ġbest": 935,
      "rib": 936,
      "alth": 937,
      "----": 938,
      "ix": 939,
      "Ġdec": 940,
      "ax": 941,
      "Ã¡": 942,
      "ah": 943,
      "pr": 944,
      "other": 945,
      "Ġown": 946,
      "Ġmod": 947,
      "Ġins": 948,
      "Ġest": 949,
      "ption": 950,
      "...": 951,
      "Ġdiffere": 952,
      "Ġcar": 953,
      "ner": 954,
      "ics": 955,
      "ex": 956,
      "ational": 957,
      "Ġpar": 958,
      "gan": 959,
      "Ġdoes": 960,
      "ork": 961,
      "air": 962,
      "Ġsuch": 963,
      "Ġbus": 964,
      "ins": 965,
      "uring": 966,
      "Ġhere": 967,
      "Ġagain": 968,
      "der": 969,
      "Ġop": 970,
      "MM": 971,
      "ĠIf": 972,
      "hip": 973,
      "riv": 974,
      "arch": 975,
      "ict": 976,
      "Ġmin": 977,
      "Ġhand": 978,
      "ash": 979,
      "Ġtake": 980,
      "ually": 981,
      "Ġspec": 982,
      "Ġbel": 983,
      "Ġdef": 984,
      "Ġes": 985,
      "Ġhigh": 986,
      "Ġstr": 987,
      "Ġmon": 988,
      "way": 989,
      "formation": 990,
      "Ġend": 991,
      "velop": 992,
      "iel": 993,
      "com": 994,
      "Ġsim": 995,
      "Ġbefore": 996,
      ".âĢĿ": 997,
      "ative": 998,
      "__": 999,
      "Ġrequ": 1000,
      "ĊĊ": 1001,
      "Ġday": 1002,
      "Ġbeing": 1003,
      "Ġpres": 1004,
      "atch": 1005,
      "amp": 1006,
      "ces": 1007,
      "ãĢ": 1008,
      "ave": 1009,
      "COMM": 1010,
      "Ġsom": 1011,
      "Ġtrans": 1012,
      "COMMENT": 1013,
      "Ġthose": 1014,
      "alk": 1015,
      "Ġmed": 1016,
      "arket": 1017,
      "ung": 1018,
      "read": 1019,
      "que": 1020,
      "Ġmade": 1021,
      "ues": 1022,
      "ollow": 1023,
      "Ġcre": 1024,
      "let": 1025,
      "Ġra": 1026,
      "Ġsl": 1027,
      "ever": 1028,
      "ited": 1029,
      "15": 1030,
      "ĠAl": 1031,
      "arm": 1032,
      "St": 1033,
      "Ġinter": 1034,
      "Ġcall": 1035,
      "Ġloc": 1036,
      "Ġreally": 1037,
      "==": 1038,
      "be": 1039,
      "Ġser": 1040,
      "Ġfun": 1041,
      "Ġused": 1042,
      "con": 1043,
      "Ġnum": 1044,
      "Ġdet": 1045,
      "led": 1046,
      "self": 1047,
      "uc": 1048,
      "Ġshow": 1049,
      "Ġext": 1050,
      "chn": 1051,
      "Ġform": 1052,
      "Ġfam": 1053,
      "Ġaut": 1054,
      "Ċĉĉ": 1055,
      "Ġgl": 1056,
      "view": 1057,
      "ten": 1058,
      "Ġreal": 1059,
      "ĠAn": 1060,
      "ines": 1061,
      "arn": 1062,
      "Ġlife": 1063,
      "Wh": 1064,
      "nce": 1065,
      "Ã¤": 1066,
      "30": 1067,
      "ann": 1068,
      "11": 1069,
      "Ġob": 1070,
      "Ġcur": 1071,
      "Ġsub": 1072,
      "Ġty": 1073,
      "ern": 1074,
      "gram": 1075,
      "Ġart": 1076,
      "ĠSh": 1077,
      "Ġinte": 1078,
      "Ġworld": 1079,
      "Ġdisc": 1080,
      "Ġhome": 1081,
      "ason": 1082,
      "Ġsk": 1083,
      "çļ": 1084,
      "ode": 1085,
      "arg": 1086,
      "iet": 1087,
      "ince": 1088,
      "Ġgoing": 1089,
      "Ġval": 1090,
      "ĠDe": 1091,
      "Ġsystem": 1092,
      "Ġwhile": 1093,
      "ĠBut": 1094,
      "ather": 1095,
      "ages": 1096,
      "els": 1097,
      "We": 1098,
      "ars": 1099,
      "Ġbusiness": 1100,
      "Ġvis": 1101,
      "Ġstill": 1102,
      "irect": 1103,
      "Ġdifferent": 1104,
      "çļĦ": 1105,
      "Ġpost": 1106,
      "roup": 1107,
      "oad": 1108,
      "Ġpol": 1109,
      "rest": 1110,
      "Ġaround": 1111,
      "Ġsay": 1112,
      "akes": 1113,
      "Ġproduct": 1114,
      "Ġexp": 1115,
      "chool": 1116,
      "Ġbo": 1117,
      "ĠAr": 1118,
      "ives": 1119,
      "ced": 1120,
      "18": 1121,
      "Ġfollow": 1122,
      "ness": 1123,
      "ouse": 1124,
      "Ġconf": 1125,
      "Ġimport": 1126,
      "imes": 1127,
      "Ġdevelop": 1128,
      "Ġinf": 1129,
      "ĠAs": 1130,
      "ret": 1131,
      "Ċĉ": 1132,
      "ĠFor": 1133,
      "Ġref": 1134,
      "ĠLe": 1135,
      "Ġvar": 1136,
      "iÃ": 1137,
      "ody": 1138,
      "aj": 1139,
      "It": 1140,
      "uss": 1141,
      "Ġcor": 1142,
      "Ġlast": 1143,
      "Ġsame": 1144,
      "ustom": 1145,
      "Ġcare": 1146,
      "Ġsign": 1147,
      "Ġeach": 1148,
      "olut": 1149,
      "Ġinformation": 1150,
      "Ġpoint": 1151,
      "()": 1152,
      "ways": 1153,
      "ĠSe": 1154,
      "ween": 1155,
      "ĠCl": 1156,
      "ames": 1157,
      "Ġeas": 1158,
      "Ġed": 1159,
      "Ġmem": 1160,
      "Ġreturn": 1161,
      "br": 1162,
      "Ġlove": 1163,
      "Ġsupport": 1164,
      "ought": 1165,
      "äº": 1166,
      "rent": 1167,
      "Ġdesign": 1168,
      "riend": 1169,
      "aw": 1170,
      "Ġrep": 1171,
      "gg": 1172,
      "Ġlot": 1173,
      "Ġfeel": 1174,
      "Ġlist": 1175,
      "ĠThey": 1176,
      "ital": 1177,
      "Ġev": 1178,
      "Ġcour": 1179,
      "ĠAd": 1180,
      "Ġcount": 1181,
      "This": 1182,
      "Ġfr": 1183,
      "ĠNew": 1184,
      "Ġcle": 1185,
      "Ġhapp": 1186,
      "ional": 1187,
      "ittle": 1188,
      "ism": 1189,
      "ized": 1190,
      "Ġprof": 1191,
      "Ġbetween": 1192,
      "ĠZ": 1193,
      "thing": 1194,
      "ym": 1195,
      "ething": 1196,
      "aut": 1197,
      "ait": 1198,
      "ĠQ": 1199,
      "Ġprocess": 1200,
      "ider": 1201,
      "Ġpublic": 1202,
      "ets": 1203,
      "Ġbook": 1204,
      "land": 1205,
      "ring": 1206,
      "att": 1207,
      "Ġmarket": 1208,
      "Ġthings": 1209,
      "Ġlead": 1210,
      "Ġdata": 1211,
      "ĊĠ": 1212,
      "Ġchild": 1213,
      "Ġgener": 1214,
      "Ġdep": 1215,
      "Ġboth": 1216,
      "Ġfound": 1217,
      "Ġfew": 1218,
      "ying": 1219,
      "ute": 1220,
      "ants": 1221,
      "less": 1222,
      "50": 1223,
      "Ġposs": 1224,
      "ER": 1225,
      "Ġresult": 1226,
      "ivers": 1227,
      "Ġcr": 1228,
      "ruct": 1229,
      "Ġcommun": 1230,
      "cept": 1231,
      "Ġfree": 1232,
      "ters": 1233,
      "Ġclass": 1234,
      "ature": 1235,
      "Ġpat": 1236,
      "Ġplace": 1237,
      "lease": 1238,
      "Ġcome": 1239,
      "Ġquest": 1240,
      "Ġusing": 1241,
      "Ġhealth": 1242,
      "16": 1243,
      "Ġkeep": 1244,
      "ĠCom": 1245,
      "Ġtop": 1246,
      "ving": 1247,
      "app": 1248,
      "Ġfact": 1249,
      "ired": 1250,
      "Ġer": 1251,
      "Ġsomething": 1252,
      "Ġlet": 1253,
      "ä»": 1254,
      "Ġteam": 1255,
      "rop": 1256,
      "Ġrun": 1257,
      "ãĢĤ": 1258,
      "oh": 1259,
      "Ġfil": 1260,
      "ĠShe": 1261,
      "ield": 1262,
      "ered": 1263,
      "ok": 1264,
      "ĠHow": 1265,
      "ĊĠĠĠĠĠĠĠĠĠĠĠĠ": 1266,
      "ĊĠĠĠĠĠĠĠĠĠĠĠĠĠĠĠĠ": 1267,
      "Ġresp": 1268,
      "che": 1269,
      "ĠPl": 1270,
      "âĢĺ": 1271,
      "eng": 1272,
      "ared": 1273,
      "Ġpur": 1274,
      "me": 1275,
      "ality": 1276,
      "orn": 1277,
      "Ġlittle": 1278,
      "14": 1279,
      "ĊĠĠĠĠĠĠĠĠĠĠĠ": 1280,
      "ross": 1281,
      "ĠBl": 1282,
      "Ġprogram": 1283,
      "oun": 1284,
      "Ġpass": 1285,
      "Ġbetter": 1286,
      "IN": 1287,
      "Ġprovid": 1288,
      "Ġsoc": 1289,
      "Ġpartic": 1290,
      "Ġconst": 1291,
      "ined": 1292,
      "ĠThere": 1293,
      "ton": 1294,
      "Ġmight": 1295,
      ",âĢĿ": 1296,
      "Ġrest": 1297,
      "Ġadv": 1298,
      "stand": 1299,
      "ĠSo": 1300,
      "Ġide": 1301,
      "blem": 1302,
      "ology": 1303,
      "Ġalways": 1304,
      "ense": 1305,
      "ically": 1306,
      "Ġonline": 1307,
      "Ġdist": 1308,
      "Ġmust": 1309,
      "Ġsure": 1310,
      ",\"": 1311,
      "Ġtechn": 1312,
      "13": 1313,
      "Ġopen": 1314,
      "Ġwithout": 1315,
      "Ġmain": 1316,
      "ina": 1317,
      "Ġtest": 1318,
      "Ġhead": 1319,
      "ci": 1320,
      "000": 1321,
      "ator": 1322,
      "ĠBe": 1323,
      "uck": 1324,
      "Ġmonth": 1325,
      "ining": 1326,
      "over": 1327,
      "Ġnever": 1328,
      "Ġcas": 1329,
      "ĠTr": 1330,
      "Ġgot": 1331,
      "Ġcustom": 1332,
      "Ġpay": 1333,
      "Ġeffect": 1334,
      "Ġcontin": 1335,
      "gy": 1336,
      "ailable": 1337,
      "rol": 1338,
      "ĠEx": 1339,
      "Ġput": 1340,
      "arly": 1341,
      "man": 1342,
      "Ġpos": 1343,
      "atur": 1344,
      "Ġmet": 1345,
      "par": 1346,
      "Ġexam": 1347,
      "arge": 1348,
      "ery": 1349,
      "ows": 1350,
      "ists": 1351,
      "Ġwr": 1352,
      "Ġplan": 1353,
      "orth": 1354,
      "Ġimportant": 1355,
      "Ġweek": 1356,
      "You": 1357,
      "ĠÃł": 1358,
      "Re": 1359,
      "oot": 1360,
      "oid": 1361,
      "ertain": 1362,
      "meric": 1363,
      "ved": 1364,
      "Ġduring": 1365,
      "ling": 1366,
      "Ġdem": 1367,
      "oney": 1368,
      "ering": 1369,
      "nect": 1370,
      "iving": 1371,
      "ze": 1372,
      "Ġthree": 1373,
      "ware": 1374,
      "Ġproblem": 1375,
      "Ġcent": 1376,
      "de": 1377,
      "Ġinterest": 1378,
      "ats": 1379,
      "Ġorgan": 1380,
      "ially": 1381,
      "Ġanother": 1382,
      "Ġask": 1383,
      "Ġiss": 1384,
      "Ġsmall": 1385,
      "Ġnumber": 1386,
      "bers": 1387,
      "ves": 1388,
      "ients": 1389,
      "Ġwom": 1390,
      "Ġwater": 1391,
      "17": 1392,
      "reen": 1393,
      "Ġdie": 1394,
      "25": 1395,
      "Ġhard": 1396,
      "Ġfriend": 1397,
      "Ġbuild": 1398,
      "Ġprot": 1399,
      "Ġsit": 1400,
      "ote": 1401,
      "Ġincre": 1402,
      "Ġbig": 1403,
      "Ġgame": 1404,
      "Ġstand": 1405,
      "Ġexpl": 1406,
      "Ġnext": 1407,
      "Ġgroup": 1408,
      "!!": 1409,
      "the": 1410,
      "Ġturn": 1411,
      "ĠCon": 1412,
      "ished": 1413,
      "ploy": 1414,
      "Ã¶": 1415,
      "Ġreport": 1416,
      "Ġexperience": 1417,
      "ai": 1418,
      "ope": 1419,
      "Ġtri": 1420,
      "ream": 1421,
      "ivid": 1422,
      "ien": 1423,
      "If": 1424,
      "100": 1425,
      "ccess": 1426,
      "Ġstat": 1427,
      "Ġsince": 1428,
      "ĠTe": 1429,
      "Ġdirect": 1430,
      "rist": 1431,
      "Ġder": 1432,
      "Ġavailable": 1433,
      "raph": 1434,
      "ĠInd": 1435,
      "Ġles": 1436,
      "Ġmov": 1437,
      "Ġcompany": 1438,
      "\",": 1439,
      "ĠOn": 1440,
      "Ġproject": 1441,
      "Ġold": 1442,
      "Ġfamily": 1443,
      "Ġgive": 1444,
      "Ġlevel": 1445,
      "ique": 1446,
      "ior": 1447,
      "ox": 1448,
      "Ġspe": 1449,
      "ately": 1450,
      "work": 1451,
      "ee": 1452,
      "inal": 1453,
      "Ġmus": 1454,
      "cri": 1455,
      "urs": 1456,
      "Ġca": 1457,
      "Ġcost": 1458,
      "Ġsecond": 1459,
      "uf": 1460,
      "ĠAmeric": 1461,
      "Ġnon": 1462,
      "24": 1463,
      "pro": 1464,
      "Ġthought": 1465,
      "ours": 1466,
      "cent": 1467,
      "Ġbre": 1468,
      "Ġable": 1469,
      "ott": 1470,
      "****": 1471,
      "ĠTo": 1472,
      "Ġschool": 1473,
      "ĠFr": 1474,
      "Ġbro": 1475,
      "ember": 1476,
      "Ġrece": 1477,
      "ision": 1478,
      "Ġseem": 1479,
      "ron": 1480,
      "ino": 1481,
      "ĠIs": 1482,
      "Ġleg": 1483,
      "Ġpower": 1484,
      "Ġopp": 1485,
      "Ġben": 1486,
      "of": 1487,
      "Ġve": 1488,
      "ĠSp": 1489,
      "Ġhum": 1490,
      "Ġver": 1491,
      "ral": 1492,
      "ĠThat": 1493,
      "Ġcase": 1494,
      "ĠAll": 1495,
      "ps": 1496,
      "Ġincluding": 1497,
      "Ġinvest": 1498,
      "Ġless": 1499,
      "Ġperform": 1500,
      "ĊĠĠĠĠĠ": 1501,
      "ards": 1502,
      "oint": 1503,
      "::": 1504,
      "ird": 1505,
      "Ġservice": 1506,
      "Ġmat": 1507,
      "Ġbelie": 1508,
      "ium": 1509,
      "Ġthing": 1510,
      "Ġword": 1511,
      "co": 1512,
      "Ġcap": 1513,
      "Ġaway": 1514,
      "ĠOr": 1515,
      "ÅĤ": 1516,
      "ably": 1517,
      "Ġdidn": 1518,
      "ush": 1519,
      "Ġequ": 1520,
      "ĠPh": 1521,
      "Ġdays": 1522,
      "ON": 1523,
      "Ġgrow": 1524,
      "Ġaff": 1525,
      "Ġpop": 1526,
      "Ġsal": 1527,
      "ij": 1528,
      "ency": 1529,
      "min": 1530,
      "Ġmanag": 1531,
      "oor": 1532,
      "Ġwhy": 1533,
      "Ġtem": 1534,
      "Ġfull": 1535,
      "Ġname": 1536,
      "ĠSc": 1537,
      "Ġorder": 1538,
      "Ġcurrent": 1539,
      "une": 1540,
      "sh": 1541,
      "Ġagainst": 1542,
      "Ġintern": 1543,
      "med": 1544,
      "Ġbas": 1545,
      "by": 1546,
      "Ġlight": 1547,
      "ger": 1548,
      "Ġlo": 1549,
      "ention": 1550,
      "Ġappro": 1551,
      "arent": 1552,
      "RE": 1553,
      "--------": 1554,
      "pos": 1555,
      "Ġoper": 1556,
      "Ġself": 1557,
      "ains": 1558,
      "ently": 1559,
      "fect": 1560,
      "ills": 1561,
      "What": 1562,
      "Ġunt": 1563,
      "yn": 1564,
      "Ġaccess": 1565,
      "sc": 1566,
      "put": 1567,
      "gin": 1568,
      "Ġmoney": 1569,
      "ĠAt": 1570,
      "ĠUS": 1571,
      "Ġbeh": 1572,
      "Ġkind": 1573,
      "Ġwithin": 1574,
      "ipp": 1575,
      "Ġunderstand": 1576,
      "ane": 1577,
      "Ġprom": 1578,
      "->": 1579,
      "Ġactiv": 1580,
      "Ġopt": 1581,
      "Ġwebs": 1582,
      "Ġproper": 1583,
      "AT": 1584,
      "icle": 1585,
      "Ġprovide": 1586,
      "ization": 1587,
      "=\"": 1588,
      "hor": 1589,
      "ortun": 1590,
      "Ġmaking": 1591,
      "Ġstate": 1592,
      "ĠRes": 1593,
      "Ġaddition": 1594,
      "He": 1595,
      "Ġwin": 1596,
      "Ġsw": 1597,
      "ified": 1598,
      "Ġrese": 1599,
      "ource": 1600,
      "Ġexc": 1601,
      "ux": 1602,
      "ST": 1603,
      "sp": 1604,
      "Ġcomple": 1605,
      "Ġann": 1606,
      "Ġeng": 1607,
      "Ġpot": 1608,
      "Ġfac": 1609,
      "outh": 1610,
      "enn": 1611,
      "Ġdev": 1612,
      "lection": 1613,
      "Ġchar": 1614,
      "joy": 1615,
      "ability": 1616,
      "Ġlooking": 1617,
      "illion": 1618,
      "ission": 1619,
      "Ch": 1620,
      "Ġil": 1621,
      "af": 1622,
      "Ġchange": 1623,
      "Ġvide": 1624,
      "ential": 1625,
      "Ġservices": 1626,
      "Ġpa": 1627,
      "ump": 1628,
      "iron": 1629,
      "Ġjob": 1630,
      "ument": 1631,
      "Ġchang": 1632,
      "iven": 1633,
      "ĠWhat": 1634,
      "uro": 1635,
      "uff": 1636,
      "iversity": 1637,
      "åı": 1638,
      "ament": 1639,
      "ĠCol": 1640,
      "As": 1641,
      "Ġsol": 1642,
      "use": 1643,
      "den": 1644,
      "li": 1645,
      "por": 1646,
      "Ġey": 1647,
      "ration": 1648,
      "ised": 1649,
      "Ġterm": 1650,
      "Ġlaw": 1651,
      "Ġpresent": 1652,
      "Ġmar": 1653,
      "Ġview": 1654,
      "Ġfood": 1655,
      "ID": 1656,
      "Ġris": 1657,
      "Ġmen": 1658,
      "Ġsaf": 1659,
      "Ġworking": 1660,
      "ured": 1661,
      "ories": 1662,
      "vern": 1663,
      "Ġroom": 1664,
      "Ġmom": 1665,
      "go": 1666,
      "oci": 1667,
      "Ġcourse": 1668,
      "ror": 1669,
      "ries": 1670,
      "22": 1671,
      "(\"": 1672,
      "Ġbit": 1673,
      "Ġexpect": 1674,
      "raw": 1675,
      "ĠMan": 1676,
      "Ġcond": 1677,
      "ails": 1678,
      "Ġmeet": 1679,
      "Pro": 1680,
      "Ġdu": 1681,
      "Ġvers": 1682,
      "Ġcheck": 1683,
      "ĠNo": 1684,
      "ĠÃ©": 1685,
      "</": 1686,
      "val": 1687,
      "ada": 1688,
      "itions": 1689,
      "Ġhist": 1690,
      "Ġbody": 1691,
      "Ġsite": 1692,
      "ethod": 1693,
      "anks": 1694,
      "ready": 1695,
      "rap": 1696,
      "ending": 1697,
      "ots": 1698,
      "ĠWhen": 1699,
      "ĠPr": 1700,
      "Ġpast": 1701,
      ".,": 1702,
      "ids": 1703,
      "eb": 1704,
      "Ġtell": 1705,
      "irl": 1706,
      "Ġpract": 1707,
      "Ġallow": 1708,
      "Ġaccount": 1709,
      "load": 1710,
      "iety": 1711,
      "è¿": 1712,
      "Ġenough": 1713,
      "Ġcertain": 1714,
      "Ġsing": 1715,
      "aring": 1716,
      "ift": 1717,
      "ma": 1718,
      "Ġtalk": 1719,
      "Ġce": 1720,
      "Ġdr": 1721,
      "Ġtoday": 1722,
      "Ġimpro": 1723,
      "æľ": 1724,
      "Ġuntil": 1725,
      "Ġmean": 1726,
      "å¤": 1727,
      "Ġhaving": 1728,
      "Ġapplic": 1729,
      "Ġlearn": 1730,
      "ĠAm": 1731,
      "aster": 1732,
      "Ġspecial": 1733,
      "Ġconnect": 1734,
      "Ġpriv": 1735,
      "ado": 1736,
      "oice": 1737,
      "40": 1738,
      "Ġline": 1739,
      "aterial": 1740,
      "Ġconc": 1741,
      "Ġactually": 1742,
      "ĠWith": 1743,
      "Ġmind": 1744,
      "ination": 1745,
      "ĠComm": 1746,
      "Ġindivid": 1747,
      "rem": 1748,
      "ocus": 1749,
      "ĠGod": 1750,
      "',": 1751,
      "Ġdri": 1752,
      "Ġside": 1753,
      "acy": 1754,
      "ances": 1755,
      "vious": 1756,
      "Ġtry": 1757,
      "ĠGr": 1758,
      "Ġprofess": 1759,
      "Ġprotect": 1760,
      "lish": 1761,
      "Ġtimes": 1762,
      "duct": 1763,
      "Ġoften": 1764,
      "Ġpain": 1765,
      "Ġarea": 1766,
      "Ġlik": 1767,
      "utes": 1768,
      "Ġevent": 1769,
      "Ġchildren": 1770,
      "Ġgovern": 1771,
      "Ã¨": 1772,
      "Ġtoget": 1773,
      "Ġtogether": 1774,
      "Ġalready": 1775,
      "Ġphot": 1776,
      "Ġpossible": 1777,
      "elt": 1778,
      "Ġever": 1779,
      "Ġcou": 1780,
      "ĠChrist": 1781,
      "Ġdone": 1782,
      "Ġlocal": 1783,
      "Ġenjoy": 1784,
      "new": 1785,
      "Ġleft": 1786,
      "itive": 1787,
      "Ġsocial": 1788,
      "Ġwrit": 1789,
      "yle": 1790,
      "Ġcreat": 1791,
      "Ġthough": 1792,
      "arl": 1793,
      "tain": 1794,
      "set": 1795,
      "Ġtreat": 1796,
      "na": 1797,
      "Ġmakes": 1798,
      "son": 1799,
      "ĠEn": 1800,
      "ively": 1801,
      "atures": 1802,
      "AR": 1803,
      "ateg": 1804,
      "iver": 1805,
      "for": 1806,
      "Ġwhe": 1807,
      "bl": 1808,
      "Ġnight": 1809,
      "ĠApp": 1810,
      "atic": 1811,
      "ĠSu": 1812,
      "Ġvisit": 1813,
      "ĠMy": 1814,
      "Ġsays": 1815,
      "olution": 1816,
      "Ġlos": 1817,
      "ÄĻ": 1818,
      "opp": 1819,
      "Ġhouse": 1820,
      "An": 1821,
      "Ġmove": 1822,
      "Ġsuccess": 1823,
      "ording": 1824,
      "Ġfar": 1825,
      "Ġemploy": 1826,
      "Ġsi": 1827,
      "ĠFl": 1828,
      "Ġair": 1829,
      "How": 1830,
      "Ġbenef": 1831,
      "leg": 1832,
      "Ġeasy": 1833,
      "Ġindust": 1834,
      "Ġgetting": 1835,
      "Ġdoing": 1836,
      "avor": 1837,
      "Ġmult": 1838,
      "Ġlim": 1839,
      "199": 1840,
      "For": 1841,
      "Ġtype": 1842,
      "ney": 1843,
      "ley": 1844,
      "Ġelse": 1845,
      "side": 1846,
      "ury": 1847,
      "ĠMar": 1848,
      "Ġcreate": 1849,
      "Ġneeds": 1850,
      "Ġanal": 1851,
      "Ġdoesn": 1852,
      "ĠCan": 1853,
      "AN": 1854,
      "Ġfour": 1855,
      "Ġreview": 1856,
      "Ġwebsite": 1857,
      "Ġalong": 1858,
      "Ġx": 1859,
      "rag": 1860,
      "not": 1861,
      "ĠBr": 1862,
      "Ġfollowing": 1863,
      "ead": 1864,
      "Ġtyp": 1865,
      "Ġshort": 1866,
      "LE": 1867,
      "21": 1868,
      "Ġstudents": 1869,
      "Ġmil": 1870,
      "23": 1871,
      "Ġindividual": 1872,
      "Ġcontrol": 1873,
      "ands": 1874,
      "Ġproducts": 1875,
      "ĠX": 1876,
      "Ġmeans": 1877,
      "Ġconsider": 1878,
      "ither": 1879,
      "Ġoffer": 1880,
      "Ġvalue": 1881,
      "ended": 1882,
      "ived": 1883,
      "osed": 1884,
      "Ġothers": 1885,
      "Ġocc": 1886,
      "sw": 1887,
      "ify": 1888,
      "Ġenc": 1889,
      "Ġpersonal": 1890,
      "Ġtrad": 1891,
      "ato": 1892,
      "inc": 1893,
      "ms": 1894,
      "isc": 1895,
      "ĠMay": 1896,
      "ais": 1897,
      "Ġelect": 1898,
      "ister": 1899,
      "viron": 1900,
      "amb": 1901,
      "Ġlarge": 1902,
      "aff": 1903,
      "Ġbecome": 1904,
      "conom": 1905,
      "erence": 1906,
      "ĠCent": 1907,
      "aces": 1908,
      "fl": 1909,
      "ides": 1910,
      "?\"": 1911,
      "Ġsever": 1912,
      "Ġant": 1913,
      "åľ": 1914,
      "Äĥ": 1915,
      "Äħ": 1916,
      "zy": 1917,
      "IT": 1918,
      "ips": 1919,
      "Ġwomen": 1920,
      "Ġcal": 1921,
      "Ġfut": 1922,
      "fer": 1923,
      "ene": 1924,
      "roll": 1925,
      "ajor": 1926,
      "hing": 1927,
      "ĠEng": 1928,
      "Ġlive": 1929,
      "ole": 1930,
      "Ġleast": 1931,
      "Ġquality": 1932,
      "aim": 1933,
      "Ġbased": 1934,
      "Ġfunction": 1935,
      "Ġface": 1936,
      "Ġsoft": 1937,
      "60": 1938,
      "Ex": 1939,
      "And": 1940,
      "cle": 1941,
      "Ġquick": 1942,
      "Ġperfect": 1943,
      "There": 1944,
      "Ġexample": 1945,
      "____": 1946,
      "orts": 1947,
      "ape": 1948,
      "ched": 1949,
      "rain": 1950,
      "OR": 1951,
      "Ġhappen": 1952,
      "sel": 1953,
      "back": 1954,
      "alf": 1955,
      "Ã©s": 1956,
      "aps": 1957,
      "Ġlow": 1958,
      "Ġresearch": 1959,
      "Ġonce": 1960,
      "Ġtot": 1961,
      "Ġstory": 1962,
      "Ġprob": 1963,
      "Ġcalled": 1964,
      "Ġinclude": 1965,
      "Ġfocus": 1966,
      "ohn": 1967,
      "iqu": 1968,
      "most": 1969,
      "tr": 1970,
      "Con": 1971,
      "Ġje": 1972,
      "Ġcomes": 1973,
      "osp": 1974,
      "Ġhold": 1975,
      "Ġbeaut": 1976,
      "lement": 1977,
      "ici": 1978,
      "Ġnet": 1979,
      "arr": 1980,
      "Ġfore": 1981,
      "wh": 1982,
      "erc": 1983,
      "Ġvol": 1984,
      "yl": 1985,
      "Ġcommunity": 1986,
      "æĺ": 1987,
      "Ġseveral": 1988,
      "ones": 1989,
      "Ġson": 1990,
      "åħ": 1991,
      "umm": 1992,
      "Ġacross": 1993,
      "lev": 1994,
      "Ġreason": 1995,
      "Ġtre": 1996,
      "ask": 1997,
      "itor": 1998,
      "Ġkey": 1999,
      "ĠUniversity": 2000,
      "Ġcame": 2001,
      "ĠInst": 2002,
      "irt": 2003,
      "ĠCo": 2004,
      "Ġspecific": 2005,
      "Ġstep": 2006,
      "Ġden": 2007,
      "oose": 2008,
      "ulation": 2009,
      "Ġrequire": 2010,
      "ĠMed": 2011,
      "ĠDo": 2012,
      "Ġident": 2013,
      "Ġsuper": 2014,
      "ued": 2015,
      "ribut": 2016,
      "room": 2017,
      "Ġfund": 2018,
      "ĠCont": 2019,
      "Ġcountry": 2020,
      "Ġredu": 2021,
      "Ġsomeone": 2022,
      "Ġblog": 2023,
      "bo": 2024,
      "urity": 2025,
      "Ġbuy": 2026,
      "Ġworks": 2027,
      "Ġvideo": 2028,
      "ĠNe": 2029,
      "mber": 2030,
      "Ġtrue": 2031,
      "();": 2032,
      "ored": 2033,
      "dd": 2034,
      "Ġyet": 2035,
      "wards": 2036,
      "ising": 2037,
      "za": 2038,
      "ica": 2039,
      "AL": 2040,
      "uly": 2041,
      "resent": 2042,
      "Ġport": 2043,
      "To": 2044,
      "):": 2045,
      "acter": 2046,
      "Ġmaterial": 2047,
      "ĠQu": 2048,
      "iter": 2049,
      "ĠThese": 2050,
      "Ġfre": 2051,
      "åĲ": 2052,
      "ences": 2053,
      "ĠMe": 2054,
      "Ġheart": 2055,
      "Ġein": 2056,
      "Ġparticular": 2057,
      "Cl": 2058,
      "ype": 2059,
      "icy": 2060,
      "æĪ": 2061,
      "Ġsound": 2062,
      "urther": 2063,
      "ources": 2064,
      "Ġtook": 2065,
      "Ġdeal": 2066,
      "vert": 2067,
      "book": 2068,
      "ĊĠĠ": 2069,
      "Ġpour": 2070,
      "ĠHowever": 2071,
      "Ġcontact": 2072,
      "Ġprice": 2073,
      "Ġcomplet": 2074,
      "Ġstarted": 2075,
      "Ġorig": 2076,
      "Ġuna": 2077,
      "Ġhig": 2078,
      "Ġhuman": 2079,
      "åĪ": 2080,
      "Ġrecord": 2081,
      "Ġmethod": 2082,
      "eter": 2083,
      "Ġmajor": 2084,
      "ĠYour": 2085,
      "28": 2086,
      "Ġanything": 2087,
      "vironment": 2088,
      "Ġeduc": 2089,
      "Ġmot": 2090,
      "Ġpress": 2091,
      "ores": 2092,
      "Ġmess": 2093,
      "Ġmembers": 2094,
      "Ġopportun": 2095,
      "Ġeverything": 2096,
      "Ġener": 2097,
      "Ġcamp": 2098,
      "gle": 2099,
      "urch": 2100,
      "Ġquestion": 2101,
      "27": 2102,
      "ches": 2103,
      "aken": 2104,
      "ases": 2105,
      "Ġgames": 2106,
      "Ġwon": 2107,
      "Ġfuture": 2108,
      "ĠIm": 2109,
      "Ġess": 2110,
      "ograph": 2111,
      "agn": 2112,
      "Ġpage": 2113,
      "Al": 2114,
      "Ġyoung": 2115,
      "iful": 2116,
      "play": 2117,
      "Â»": 2118,
      "Ġtool": 2119,
      "Ġseason": 2120,
      "pre": 2121,
      "Ġpack": 2122,
      "iod": 2123,
      "But": 2124,
      "Ġoffic": 2125,
      "26": 2126,
      "Ġstrong": 2127,
      "ĠSte": 2128,
      "Ġwent": 2129,
      "ams": 2130,
      "Ġlov": 2131,
      "Ġgiven": 2132,
      "Ġcomb": 2133,
      "Ġlog": 2134,
      "Ġut": 2135,
      "Ġweb": 2136,
      "Ġmonths": 2137,
      "Ġdevelopment": 2138,
      "ĠRep": 2139,
      "Ġpret": 2140,
      "atural": 2141,
      "crib": 2142,
      "Ġbring": 2143,
      "ply": 2144,
      "Ġbegin": 2145,
      "ĠOne": 2146,
      "Ġcontent": 2147,
      "Ġrelations": 2148,
      "bre": 2149,
      "ari": 2150,
      "Ġspace": 2151,
      "Ġwond": 2152,
      "Ġfriends": 2153,
      "Ġitem": 2154,
      "Ġhours": 2155,
      "ilt": 2156,
      "Ġhot": 2157,
      "Ġter": 2158,
      "Ġdue": 2159,
      "Ġens": 2160,
      "Ġinvol": 2161,
      "Ġbreak": 2162,
      "Ġidea": 2163,
      "text": 2164,
      "ume": 2165,
      "Ġcut": 2166,
      "ctor": 2167,
      "Ġland": 2168,
      "Ġwalk": 2169,
      "raft": 2170,
      "rict": 2171,
      "ĠGu": 2172,
      "Ġseen": 2173,
      "ES": 2174,
      "ĠDes": 2175,
      "uation": 2176,
      "Ġwind": 2177,
      "Ġdiscuss": 2178,
      "Ġpara": 2179,
      "Ġste": 2180,
      "abor": 2181,
      "reg": 2182,
      "Ġgovernment": 2183,
      "ĠAss": 2184,
      "Ġlater": 2185,
      "irm": 2186,
      "Ġbelieve": 2187,
      "ha": 2188,
      "idence": 2189,
      "Ġdig": 2190,
      "Ġstay": 2191,
      "ĠServ": 2192,
      "ä¸Ģ": 2193,
      "arning": 2194,
      "Ġshare": 2195,
      "Ġresults": 2196,
      "pecially": 2197,
      "Ġwhole": 2198,
      "Ġcompan": 2199,
      "Ġap": 2200,
      "icult": 2201,
      "ilities": 2202,
      "ĠNot": 2203,
      "Ġpor": 2204,
      "When": 2205,
      "Ġfield": 2206,
      "unch": 2207,
      "add": 2208,
      "Ġpie": 2209,
      "ights": 2210,
      "ili": 2211,
      "verage": 2212,
      "Ġjo": 2213,
      "ana": 2214,
      "Ġdou": 2215,
      "ule": 2216,
      "ibility": 2217,
      "Ġamount": 2218,
      "ĠCO": 2219,
      "Ġstudy": 2220,
      "ners": 2221,
      "Ġcult": 2222,
      "eral": 2223,
      "ĠChe": 2224,
      "Ġsex": 2225,
      "ĊĠĠĠĠĠĠĠĠĠĠĠĠĠĠĠ": 2226,
      "oon": 2227,
      "====": 2228,
      "Ġbad": 2229,
      "å®": 2230,
      "ault": 2231,
      "##": 2232,
      "Ġhope": 2233,
      "ison": 2234,
      "Ġpri": 2235,
      "ffic": 2236,
      "29": 2237,
      "Ġmoment": 2238,
      "ler": 2239,
      "ural": 2240,
      "Ġeconom": 2241,
      "ables": 2242,
      "cription": 2243,
      "Ġrecomm": 2244,
      "Ġknown": 2245,
      "Ġclean": 2246,
      "fort": 2247,
      "Ġmor": 2248,
      "Ġbelow": 2249,
      "Ġchall": 2250,
      "Ġcred": 2251,
      "Ġdoc": 2252,
      "ples": 2253,
      "ĠCar": 2254,
      "gs": 2255,
      "ilar": 2256,
      "gen": 2257,
      "illed": 2258,
      "ubl": 2259,
      "Ġcommon": 2260,
      "Ġmillion": 2261,
      "lex": 2262,
      "ites": 2263,
      "artment": 2264,
      "ych": 2265,
      "str": 2266,
      "Ġabove": 2267,
      "Ġrespons": 2268,
      "iment": 2269,
      "time": 2270,
      "ogn": 2271,
      "Ġphys": 2272,
      "ĊĊĠĠĠ": 2273,
      "ober": 2274,
      "Ġsize": 2275,
      "Ġtold": 2276,
      "Ġgirl": 2277,
      "Ġsingle": 2278,
      "Ġsent": 2279,
      "ression": 2280,
      "ĠAmerican": 2281,
      "So": 2282,
      "obal": 2283,
      "ĠLa": 2284,
      "lt": 2285,
      "Ġcompet": 2286,
      "Ġwatch": 2287,
      "Ġtext": 2288,
      "AS": 2289,
      "Ġtaking": 2290,
      "âĢ¢": 2291,
      "Ġfinanc": 2292,
      "AC": 2293,
      "arget": 2294,
      "Ġcity": 2295,
      "Ġtrying": 2296,
      "Ġfinal": 2297,
      "Ġmusic": 2298,
      "Ġsimple": 2299,
      "Ġvi": 2300,
      "Ġappear": 2301,
      "Ġminutes": 2302,
      "Ġwhether": 2303,
      "Ġearly": 2304,
      "ried": 2305,
      "Ġpurch": 2306,
      "era": 2307,
      "Ġmodel": 2308,
      "ourn": 2309,
      "Ġabs": 2310,
      "clus": 2311,
      "Ġaddress": 2312,
      "ification": 2313,
      "Ġfall": 2314,
      "Ġcard": 2315,
      "orld": 2316,
      "Ġlas": 2317,
      "å°": 2318,
      "ĠIntern": 2319,
      "fully": 2320,
      "ĠEm": 2321,
      "Ġrepl": 2322,
      "Ġago": 2323,
      "Ġcell": 2324,
      "oud": 2325,
      "Ġna": 2326,
      "Ġexist": 2327,
      "Ġbed": 2328,
      "Ġsignific": 2329,
      "IC": 2330,
      "imate": 2331,
      "ĠAb": 2332,
      "Ġsugg": 2333,
      "ray": 2334,
      "Ġeither": 2335,
      "ires": 2336,
      "Ġda": 2337,
      "Ġeveryone": 2338,
      "Ġcompl": 2339,
      "rew": 2340,
      "cer": 2341,
      "Ġhy": 2342,
      "ett": 2343,
      "Ġpolit": 2344,
      "ĠJohn": 2345,
      "ĠEl": 2346,
      "though": 2347,
      "Ġprivate": 2348,
      "Com": 2349,
      "Ġupd": 2350,
      "ication": 2351,
      "Ġsuggest": 2352,
      "ĠEuro": 2353,
      "Ġindustry": 2354,
      "Ġquestions": 2355,
      "Ġissues": 2356,
      "Ġprobably": 2357,
      "On": 2358,
      "))": 2359,
      "Ġfeatures": 2360,
      "irc": 2361,
      "Ġwanted": 2362,
      "import": 2363,
      "æĺ¯": 2364,
      "Ġfront": 2365,
      "Ġprim": 2366,
      "selves": 2367,
      "Ġune": 2368,
      "Ġamong": 2369,
      "ades": 2370,
      "itch": 2371,
      "idd": 2372,
      "reet": 2373,
      "Sh": 2374,
      "Ġgen": 2375,
      "Ġalmost": 2376,
      "angu": 2377,
      "face": 2378,
      "ops": 2379,
      "onse": 2380,
      "Ġfavor": 2381,
      "Ġquite": 2382,
      "Ġplus": 2383,
      "Ġnecess": 2384,
      "*/": 2385,
      "Ġparent": 2386,
      "ĠMin": 2387,
      "Ġmach": 2388,
      "icht": 2389,
      "Ġmeas": 2390,
      "used": 2391,
      "Ġrelationship": 2392,
      "Ġrange": 2393,
      "Ġtax": 2394,
      "Ġwait": 2395,
      "Ġbar": 2396,
      "Ġperiod": 2397,
      "Ġmedia": 2398,
      "Ġenergy": 2399,
      "Ġred": 2400,
      "lege": 2401,
      "Ġauthor": 2402,
      "ĠPer": 2403,
      "Ġcompanies": 2404,
      "kt": 2405,
      "Ġcrit": 2406,
      "icro": 2407,
      "Ġdefin": 2408,
      "Ġtable": 2409,
      "Ġinstall": 2410,
      "Ġdam": 2411,
      "ude": 2412,
      "Ġimprove": 2413,
      "Ġisn": 2414,
      "ama": 2415,
      "asing": 2416,
      "hers": 2417,
      "Ġsearch": 2418,
      "Ġblack": 2419,
      "ĠdÃ©": 2420,
      "Ġpick": 2421,
      "Ġmiss": 2422,
      "80": 2423,
      "ained": 2424,
      "Ġasked": 2425,
      "Ġdeb": 2426,
      "Ġansw": 2427,
      "unt": 2428,
      "Ġentire": 2429,
      "ledge": 2430,
      "Ġvan": 2431,
      "Ġnothing": 2432,
      "Ġpretty": 2433,
      "Ġneeded": 2434,
      "ser": 2435,
      "ged": 2436,
      "elling": 2437,
      "head": 2438,
      "rs": 2439,
      "tt": 2440,
      "Ġbeautiful": 2441,
      "ĠĠĠĠĠĠĠĠĠĠĠĠĠĠĠĠ": 2442,
      "atform": 2443,
      "ends": 2444,
      "rown": 2445,
      "Ġeyes": 2446,
      "aving": 2447,
      "chie": 2448,
      "urance": 2449,
      "augh": 2450,
      "rect": 2451,
      "Ġinit": 2452,
      "Ġenvironment": 2453,
      "IS": 2454,
      "ball": 2455,
      "resh": 2456,
      "Ġinfl": 2457,
      "Ġvarious": 2458,
      "ception": 2459,
      "Ġcolor": 2460,
      "Ġlarg": 2461,
      "Ġyourself": 2462,
      "Ġespecially": 2463,
      "Ġobject": 2464,
      "Ġhalf": 2465,
      "Ġaud": 2466,
      "ster": 2467,
      "rodu": 2468,
      "Ġclose": 2469,
      "ules": 2470,
      "ony": 2471,
      "Ġclaim": 2472,
      "ille": 2473,
      "Ġlat": 2474,
      "ators": 2475,
      "Ġoil": 2476,
      "ĠGl": 2477,
      "ante": 2478,
      "ED": 2479,
      "ĠCal": 2480,
      "Ġrisk": 2481,
      "ione": 2482,
      "Ġlink": 2483,
      "alt": 2484,
      "32": 2485,
      "Ġlikely": 2486,
      "Ġge": 2487,
      "Ġhistory": 2488,
      "Ġwords": 2489,
      "Ġdifficult": 2490,
      "action": 2491,
      "Ġnorm": 2492,
      "ender": 2493,
      "where": 2494,
      "Ġsimply": 2495,
      "ico": 2496,
      "....": 2497,
      "Ġways": 2498,
      "ĠOur": 2499,
      "ibr": 2500,
      "Ġparticip": 2501,
      "Ġexperi": 2502,
      "Ġpict": 2503,
      "Un": 2504,
      "Ġfive": 2505,
      "ÅĽ": 2506,
      "Ġarticle": 2507,
      "iday": 2508,
      "Ġtou": 2509,
      "Ã§": 2510,
      "Ġnews": 2511,
      "99": 2512,
      "ĠPol": 2513,
      "come": 2514,
      "Ġfurther": 2515,
      "Ġtravel": 2516,
      "('": 2517,
      "Ġoffers": 2518,
      "ĠSch": 2519,
      "Ġclear": 2520,
      "Ġage": 2521,
      "ĠUnited": 2522,
      "Ġselect": 2523,
      "Ġposition": 2524,
      "Ġdom": 2525,
      "Ġbuilding": 2526,
      "Ar": 2527,
      "ĠComp": 2528,
      "ĠPart": 2529,
      "inks": 2530,
      "iting": 2531,
      "Ã¥": 2532,
      "Ġtechnology": 2533,
      "æĹ": 2534,
      "Ġextra": 2535,
      "Ġcustomers": 2536,
      "Ġhowever": 2537,
      "Ġsoon": 2538,
      "ĠAfter": 2539,
      "Ġtrack": 2540,
      "/>": 2541,
      "ales": 2542,
      "ging": 2543,
      "itut": 2544,
      "oe": 2545,
      "Ġoptions": 2546,
      "ensive": 2547,
      "acc": 2548,
      "Ġimpact": 2549,
      "chen": 2550,
      "Ġplease": 2551,
      "35": 2552,
      "Ġmatter": 2553,
      "Ġrequired": 2554,
      "Ġtraining": 2555,
      "ises": 2556,
      "ÄĽ": 2557,
      "ruction": 2558,
      "Ġseries": 2559,
      "Ġsle": 2560,
      "Ġstruct": 2561,
      "ĠPe": 2562,
      "ided": 2563,
      "Ġpas": 2564,
      "astic": 2565,
      "obile": 2566,
      "Ġrather": 2567,
      "********": 2568,
      "umb": 2569,
      "aur": 2570,
      "ðŁ": 2571,
      "Ġemail": 2572,
      "åĽ": 2573,
      "Ġcoming": 2574,
      "Ãł": 2575,
      "Ġcoll": 2576,
      "Â«": 2577,
      "Ġnear": 2578,
      "Ġmanagement": 2579,
      "my": 2580,
      "ety": 2581,
      "Ġdeterm": 2582,
      "Ã£": 2583,
      "Ãª": 2584,
      "Ġclos": 2585,
      "cy": 2586,
      "Ġcook": 2587,
      "ken": 2588,
      "Ġsignificant": 2589,
      "ĠTw": 2590,
      "ĠHis": 2591,
      "Ġetc": 2592,
      "ĠSec": 2593,
      "aching": 2594,
      "omes": 2595,
      "Ġsat": 2596,
      "Ġhost": 2597,
      "ella": 2598,
      "Ġneg": 2599,
      "ĠEurope": 2600,
      "ui": 2601,
      "ĠKe": 2602,
      "Ġcomput": 2603,
      "Ġregard": 2604,
      "itted": 2605,
      "ĠPar": 2606,
      "Ġwriting": 2607,
      "Ġfile": 2608,
      "ĠDr": 2609,
      "iple": 2610,
      "ength": 2611,
      "Ġwhite": 2612,
      "Ġpercent": 2613,
      "Ġbehind": 2614,
      "Ġcomplete": 2615,
      "Ġnatural": 2616,
      "45": 2617,
      "Ġsens": 2618,
      "Ġdest": 2619,
      "Ġcomment": 2620,
      "itional": 2621,
      "ese": 2622,
      "Ġqui": 2623,
      "Ġaccept": 2624,
      "ĠEd": 2625,
      "Ġassoci": 2626,
      "oogle": 2627,
      "eks": 2628,
      "Ġtaken": 2629,
      "opy": 2630,
      "Ġcontinue": 2631,
      "Ġdoor": 2632,
      "Ġliving": 2633,
      "Ġpatients": 2634,
      "ĠCount": 2635,
      "ĠReg": 2636,
      "Ġpopular": 2637,
      "Ġincrease": 2638,
      "etimes": 2639,
      "Ġdans": 2640,
      "ĠJan": 2641,
      "gress": 2642,
      "minist": 2643,
      "Ġperformance": 2644,
      "Ġissue": 2645,
      "Ġfig": 2646,
      "Ġsym": 2647,
      "ĠJust": 2648,
      "iam": 2649,
      "Ġchoose": 2650,
      "Res": 2651,
      "ando": 2652,
      "ĠInt": 2653,
      "è¯": 2654,
      "Ġcharacter": 2655,
      "ĠDep": 2656,
      "ummer": 2657,
      "medi": 2658,
      "this": 2659,
      "ĠSome": 2660,
      "Ġsimilar": 2661,
      "Ġforward": 2662,
      "Ġstop": 2663,
      "Ġadded": 2664,
      "Ġprovides": 2665,
      "Ġvia": 2666,
      "Ġmit": 2667,
      "ĠSm": 2668,
      "cial": 2669,
      "Ġpers": 2670,
      "ĠMore": 2671,
      "Ġfail": 2672,
      "icated": 2673,
      "ufact": 2674,
      "Ġfilm": 2675,
      "Ġsil": 2676,
      "Ġsus": 2677,
      "Ġassist": 2678,
      "Ġgeneral": 2679,
      "My": 2680,
      "ĠCity": 2681,
      "Ã£o": 2682,
      "ĠState": 2683,
      "Ġversion": 2684,
      "Ġstyle": 2685,
      "itting": 2686,
      "90": 2687,
      "hr": 2688,
      "With": 2689,
      "Ġloss": 2690,
      "izing": 2691,
      "anced": 2692,
      "70": 2693,
      "Ġwar": 2694,
      "ka": 2695,
      "Ġaction": 2696,
      "ĠGe": 2697,
      "Ġareas": 2698,
      "imal": 2699,
      "nov": 2700,
      "AM": 2701,
      "ĠBy": 2702,
      "Ġskin": 2703,
      "Ġproblems": 2704,
      "Ġpoints": 2705,
      "Ċĉĉĉĉ": 2706,
      "Ġweight": 2707,
      "Ġinside": 2708,
      "Ġexact": 2709,
      "off": 2710,
      "apt": 2711,
      "Ġhigher": 2712,
      "ny": 2713,
      "uge": 2714,
      "ida": 2715,
      "uild": 2716,
      "Ã©e": 2717,
      "ief": 2718,
      "key": 2719,
      "Tr": 2720,
      "Ġrespect": 2721,
      "Ġprint": 2722,
      "Ġâ": 2723,
      "Ġtotal": 2724,
      "Ġreading": 2725,
      "Ġrequest": 2726,
      "åľ¨": 2727,
      "Ġwasn": 2728,
      "Ġworth": 2729,
      "Ġobs": 2730,
      "Ġcollect": 2731,
      "Ġprevious": 2732,
      "Ġrepresent": 2733,
      "ä¸į": 2734,
      "Ġuser": 2735,
      "ros": 2736,
      "ĠRec": 2737,
      "emic": 2738,
      "itten": 2739,
      "Ġlonger": 2740,
      "OT": 2741,
      "Ġphone": 2742,
      "Ġtit": 2743,
      "Ġconsum": 2744,
      "ysis": 2745,
      ".)": 2746,
      "198": 2747,
      "Ġseems": 2748,
      "No": 2749,
      "ĠAug": 2750,
      "Ġanyone": 2751,
      "empt": 2752,
      "pped": 2753,
      "earch": 2754,
      "ara": 2755,
      "Ġautom": 2756,
      "Ġsn": 2757,
      "Ġbrand": 2758,
      "Ġsaw": 2759,
      "aced": 2760,
      "uel": 2761,
      "Ġfa": 2762,
      "Ċĉĉĉ": 2763,
      "Ġarg": 2764,
      "Ġwonder": 2765,
      "aciÃ": 2766,
      "Ġusually": 2767,
      "Ġplatform": 2768,
      "Ġsoftware": 2769,
      "All": 2770,
      "ges": 2771,
      "Ġfoot": 2772,
      "Ġoption": 2773,
      "ĠStud": 2774,
      "uth": 2775,
      "hel": 2776,
      "Ġaw": 2777,
      "Ġchanges": 2778,
      "oph": 2779,
      "ĠPres": 2780,
      "Cont": 2781,
      "äºĨ": 2782,
      "ĠHer": 2783,
      "ĠNow": 2784,
      "Ġfinancial": 2785,
      "edd": 2786,
      "Ġdeath": 2787,
      "ground": 2788,
      "amm": 2789,
      "eren": 2790,
      "31": 2791,
      "Ġmo": 2792,
      "ĠSchool": 2793,
      "Ġfast": 2794,
      "Ġau": 2795,
      "Ġachie": 2796,
      "ĠAdd": 2797,
      "ĠYork": 2798,
      "Ġhon": 2799,
      "Ġprofessional": 2800,
      "ival": 2801,
      "arth": 2802,
      "atory": 2803,
      "Ġrate": 2804,
      "Ġoffice": 2805,
      "Ġsecurity": 2806,
      "po": 2807,
      "ano": 2808,
      "ental": 2809,
      "Ġmass": 2810,
      "Ġleave": 2811,
      "Ġhab": 2812,
      "Ġhands": 2813,
      "rel": 2814,
      "Ġlay": 2815,
      "ref": 2816,
      "ession": 2817,
      "ĠArt": 2818,
      "ĠCor": 2819,
      "Ġtreatment": 2820,
      "Ġcannot": 2821,
      "Ġswe": 2822,
      "Ġimm": 2823,
      "ĠHealth": 2824,
      "uses": 2825,
      "Ġusers": 2826,
      "name": 2827,
      "Ġsubject": 2828,
      "Ġgra": 2829,
      "atter": 2830,
      "Ġdate": 2831,
      "Ġur": 2832,
      "].": 2833,
      "ette": 2834,
      "Ġoutside": 2835,
      "Ġrole": 2836,
      "ils": 2837,
      "Ġmyself": 2838,
      "Ġsense": 2839,
      "azing": 2840,
      "pril": 2841,
      "æĿ": 2842,
      "just": 2843,
      "ecut": 2844,
      "Ġdeep": 2845,
      "Ġconcern": 2846,
      "ager": 2847,
      "ĠDon": 2848,
      "Ġunique": 2849,
      "Ġhair": 2850,
      "Ph": 2851,
      "aily": 2852,
      "Ġground": 2853,
      "la": 2854,
      "Ġestab": 2855,
      "Ġpaper": 2856,
      "ening": 2857,
      "Ġfire": 2858,
      "Ġapplication": 2859,
      "Ġlearning": 2860,
      "Ġdetails": 2861,
      "Ġkids": 2862,
      "Ġevents": 2863,
      "zen": 2864,
      "Ġtarget": 2865,
      "uy": 2866,
      "Ġdeg": 2867,
      "Ġrad": 2868,
      "Ġtakes": 2869,
      "Ġcreated": 2870,
      "Ġcover": 2871,
      "overed": 2872,
      "US": 2873,
      "ension": 2874,
      "ĠAct": 2875,
      "Ġsystems": 2876,
      "ÃŃa": 2877,
      "That": 2878,
      "Ġpotential": 2879,
      "itter": 2880,
      "Ġbott": 2881,
      "Ġknowledge": 2882,
      "ĠAg": 2883,
      "ios": 2884,
      "ection": 2885,
      "Ġbox": 2886,
      "Ġcause": 2887,
      "uit": 2888,
      "ĠWorld": 2889,
      "Ġhappy": 2890,
      "Ġproperty": 2891,
      "Ġcomfort": 2892,
      "cast": 2893,
      "ptember": 2894,
      "Ġpath": 2895,
      "Ġlooks": 2896,
      "\">": 2897,
      "cript": 2898,
      "Ġsafe": 2899,
      "Ġstaff": 2900,
      "ĠWill": 2901,
      "Ġblood": 2902,
      "äºº": 2903,
      "Ġdise": 2904,
      "anguage": 2905,
      "De": 2906,
      "ram": 2907,
      "RO": 2908,
      "nes": 2909,
      "Ġspeak": 2910,
      "imum": 2911,
      "Ġple": 2912,
      "Ġcases": 2913,
      "Ġthird": 2914,
      "cing": 2915,
      "Ġcouple": 2916,
      "ION": 2917,
      "Ġupon": 2918,
      "Ġful": 2919,
      "Ġensure": 2920,
      "ees": 2921,
      "Ġfelt": 2922,
      "Ġready": 2923,
      "ĠAf": 2924,
      "ĠMc": 2925,
      "ĠNational": 2926,
      "Ġweeks": 2927,
      "Ġcode": 2928,
      "no": 2929,
      "Ġprovided": 2930,
      "Ġill": 2931,
      "Ġrunning": 2932,
      "ĠBo": 2933,
      "Ġrecogn": 2934,
      "Se": 2935,
      "Ġri": 2936,
      "Ġou": 2937,
      "Ġaccording": 2938,
      "Ġzu": 2939,
      "ĠPa": 2940,
      "ĠStates": 2941,
      "ĠAut": 2942,
      "----------------": 2943,
      "AD": 2944,
      "36": 2945,
      "Ġstore": 2946,
      "Ġcirc": 2947,
      "Ġqual": 2948,
      "aging": 2949,
      "ky": 2950,
      "Get": 2951,
      "Ġperm": 2952,
      "Ġpan": 2953,
      "alse": 2954,
      "agement": 2955,
      "Ġhor": 2956,
      "Ġep": 2957,
      "ĠBar": 2958,
      "Ġcam": 2959,
      "ĠOf": 2960,
      "Ġwoman": 2961,
      "Ġfit": 2962,
      "ĠTra": 2963,
      "Ġdat": 2964,
      "Ġsch": 2965,
      "åį": 2966,
      "=>": 2967,
      "ipe": 2968,
      "ached": 2969,
      "return": 2970,
      "Ġcoun": 2971,
      "Ġsix": 2972,
      "ĠAust": 2973,
      "gl": 2974,
      "pose": 2975,
      "Ġquickly": 2976,
      "ivity": 2977,
      "âĢĿ.": 2978,
      "Name": 2979,
      "pper": 2980,
      "Te": 2981,
      "eds": 2982,
      "Ġdownload": 2983,
      "ta": 2984,
      "By": 2985,
      "aining": 2986,
      "iles": 2987,
      "Ġinform": 2988,
      "ä»ĸ": 2989,
      "ĠOct": 2990,
      "Ġwrong": 2991,
      "AP": 2992,
      "ĠSouth": 2993,
      "bor": 2994,
      "Ġbase": 2995,
      "Ġbal": 2996,
      "Ġdescrib": 2997,
      "Ġlooked": 2998,
      "aby": 2999,
      "Ġregular": 3000,
      "ĠFin": 3001,
      "Ġinstead": 3002,
      "icles": 3003,
      "uary": 3004,
      "Ġplayers": 3005,
      "Ġroad": 3006,
      "plement": 3007,
      "Ġmag": 3008,
      "col": 3009,
      "istic": 3010,
      "Ġsett": 3011,
      "Ġmention": 3012,
      "Ġvot": 3013,
      "Ġsem": 3014,
      "LL": 3015,
      "Ġcredit": 3016,
      "En": 3017,
      "Ġknew": 3018,
      "Ġcy": 3019,
      "Ġten": 3020,
      "Ġshows": 3021,
      "ET": 3022,
      "Ġremember": 3023,
      "ris": 3024,
      "Ġengine": 3025,
      "Ġincludes": 3026,
      "Ġcontract": 3027,
      "inter": 3028,
      "olutions": 3029,
      "ĠMon": 3030,
      "Ġeasily": 3031,
      "mon": 3032,
      "Ġattack": 3033,
      "ero": 3034,
      "Ġdesigned": 3035,
      "Ġaffect": 3036,
      "ĠVal": 3037,
      "ĠOff": 3038,
      "based": 3039,
      "Ġones": 3040,
      "Ġnetwork": 3041,
      "Ġcool": 3042,
      "epend": 3043,
      "hib": 3044,
      "Ġprevent": 3045,
      "abel": 3046,
      "Ġgrowth": 3047,
      "aves": 3048,
      "erve": 3049,
      "Ġrecent": 3050,
      "Ġdru": 3051,
      "Ġnice": 3052,
      "Ġheld": 3053,
      "Ġparty": 3054,
      "],": 3055,
      "nder": 3056,
      "Ġheav": 3057,
      "Ġwall": 3058,
      "Ġtypes": 3059,
      "word": 3060,
      "right": 3061,
      "Ġmedical": 3062,
      "irit": 3063,
      "ags": 3064,
      "Ġeducation": 3065,
      "She": 3066,
      "VID": 3067,
      "ĠÂ": 3068,
      "ological": 3069,
      "vis": 3070,
      "def": 3071,
      "Ġterms": 3072,
      "Ġdark": 3073,
      "Ġprior": 3074,
      "çĶ": 3075,
      "do": 3076,
      "Ġthemselves": 3077,
      "Ġchoice": 3078,
      "cont": 3079,
      "Ġcustomer": 3080,
      "Le": 3081,
      "ĠNorth": 3082,
      "irth": 3083,
      "opt": 3084,
      "ĠfÃ": 3085,
      "Ġoriginal": 3086,
      "500": 3087,
      "Ġprep": 3088,
      "Ġlower": 3089,
      "ki": 3090,
      "01": 3091,
      "Ġopportunity": 3092,
      "Ġclick": 3093,
      "Ã¡s": 3094,
      "va": 3095,
      "Ġstra": 3096,
      "Ã±": 3097,
      "iddle": 3098,
      "mm": 3099,
      "Ġpractice": 3100,
      "light": 3101,
      "ĠMarch": 3102,
      "æĸ": 3103,
      "reng": 3104,
      "HE": 3105,
      "UR": 3106,
      "cul": 3107,
      "ste": 3108,
      "Ġpull": 3109,
      "Ġgrand": 3110,
      "ctions": 3111,
      "ians": 3112,
      "year": 3113,
      "Id": 3114,
      "Ġrecommend": 3115,
      "Ġmother": 3116,
      "Ġbooks": 3117,
      "ĠHere": 3118,
      "Ġsou": 3119,
      "Äĩ": 3120,
      "Type": 3121,
      "amed": 3122,
      "Ġintegr": 3123,
      "Be": 3124,
      "At": 3125,
      "Ġcu": 3126,
      "fig": 3127,
      "org": 3128,
      "ĠAcc": 3129,
      "ipment": 3130,
      "Ġwrite": 3131,
      "ĠHigh": 3132,
      "Ġplaying": 3133,
      "ĠPark": 3134,
      "Ġchance": 3135,
      "airs": 3136,
      "Ġapply": 3137,
      "33": 3138,
      "Ġitems": 3139,
      "haps": 3140,
      "oke": 3141,
      "ÅĻ": 3142,
      "Ġist": 3143,
      "Ġavoid": 3144,
      "ĠThen": 3145,
      "Ġproduction": 3146,
      "Ġlives": 3147,
      "itely": 3148,
      "Ġadditional": 3149,
      "Our": 3150,
      "Ġthroughout": 3151,
      "Is": 3152,
      "ĠSystem": 3153,
      "rie": 3154,
      "Ġvari": 3155,
      "Ġdigital": 3156,
      "ĠSoc": 3157,
      "Ġmix": 3158,
      "Ġhear": 3159,
      "Ġwel": 3160,
      "urt": 3161,
      "Ġreceive": 3162,
      "Ġvon": 3163,
      "usiness": 3164,
      "Ġbi": 3165,
      "},": 3166,
      "ĠBlack": 3167,
      "iction": 3168,
      "Ġma": 3169,
      "fo": 3170,
      "æľī": 3171,
      "Ġsong": 3172,
      "Ġanswer": 3173,
      "Ġmanufact": 3174,
      "ĠJune": 3175,
      "ellent": 3176,
      "elle": 3177,
      "Ġsource": 3178,
      "ĠGet": 3179,
      "idge": 3180,
      "Ġdraw": 3181,
      "inary": 3182,
      "Ġcasino": 3183,
      "ING": 3184,
      "Ġmatch": 3185,
      "Ġball": 3186,
      "Ġthinking": 3187,
      "pir": 3188,
      "lebr": 3189,
      "ç»": 3190,
      "ublished": 3191,
      "Ġconditions": 3192,
      "Ġlevels": 3193,
      "Ġbenefits": 3194,
      "ĠCenter": 3195,
      "Ġveh": 3196,
      "Ġattention": 3197,
      "Ġitself": 3198,
      "Ġskills": 3199,
      "OS": 3200,
      "Ġblock": 3201,
      "uments": 3202,
      "Ġimage": 3203,
      "Ġactivities": 3204,
      "Ġability": 3205,
      "order": 3206,
      "hood": 3207,
      "Ġlost": 3208,
      "Ġtrust": 3209,
      "75": 3210,
      "Ġord": 3211,
      "asons": 3212,
      "Ġapproach": 3213,
      "Ġsurpr": 3214,
      "illing": 3215,
      "ĠSer": 3216,
      "Ġsun": 3217,
      "fr": 3218,
      "ĠDis": 3219,
      "Ġsales": 3220,
      "oom": 3221,
      "ĠUs": 3222,
      "wise": 3223,
      "Ġnecessary": 3224,
      "Ġsaying": 3225,
      "\")": 3226,
      "Ġeffective": 3227,
      "ĠDay": 3228,
      "Ġsort": 3229,
      "Ġchalleng": 3230,
      "Ġscreen": 3231,
      "Ġprop": 3232,
      "Ġfix": 3233,
      "ĠrÃ©": 3234,
      "ospital": 3235,
      "Ġrelated": 3236,
      "lim": 3237,
      "Ġserious": 3238,
      "Ġimmedi": 3239,
      "Ġcand": 3240,
      "Ġdecision": 3241,
      "ĠApril": 3242,
      "One": 3243,
      "Ġpolicy": 3244,
      "Ġreceived": 3245,
      "Ġhit": 3246,
      "Ġglobal": 3247,
      "Pl": 3248,
      "ĠWhile": 3249,
      "Ġcurrently": 3250,
      "Ġpred": 3251,
      "ilit": 3252,
      "Ġresponse": 3253,
      "ournal": 3254,
      "anger": 3255,
      "lements": 3256,
      "Ġave": 3257,
      "Ġallows": 3258,
      "Ġcompletely": 3259,
      "ĠSw": 3260,
      "Ġdas": 3261,
      "Ġheard": 3262,
      "Ġfavorite": 3263,
      "Ġmax": 3264,
      "String": 3265,
      "æĪĳ": 3266,
      "Ġpod": 3267,
      "Ġdocument": 3268,
      "ava": 3269,
      "type": 3270,
      "Ġgoes": 3271,
      "Ġviol": 3272,
      "Ġmarketing": 3273,
      "Ġamazing": 3274,
      "Ġturned": 3275,
      "Ġbud": 3276,
      "zz": 3277,
      "ĠSeptember": 3278,
      "men": 3279,
      "arc": 3280,
      "Ġmember": 3281,
      "sec": 3282,
      "Ġagre": 3283,
      "Ġmorning": 3284,
      "è¿Ļ": 3285,
      "ĠCons": 3286,
      "eed": 3287,
      "ĠGoogle": 3288,
      "Ġsituation": 3289,
      "Ġleaders": 3290,
      "oring": 3291,
      "Ġprec": 3292,
      "Ġplant": 3293,
      "mb": 3294,
      "orks": 3295,
      "ests": 3296,
      "Ġlate": 3297,
      "hold": 3298,
      "urg": 3299,
      "Ġparents": 3300,
      "EC": 3301,
      "Ġbank": 3302,
      "Ġdrive": 3303,
      "Ġstandard": 3304,
      "Ġconvers": 3305,
      "64": 3306,
      "ressed": 3307,
      "Ġrele": 3308,
      "Ġlegal": 3309,
      "Ġsleep": 3310,
      "Ġsam": 3311,
      "Ġcorrect": 3312,
      "ĠJuly": 3313,
      "ĠFrom": 3314,
      "æī": 3315,
      "ĠÅ": 3316,
      "34": 3317,
      "Ġideas": 3318,
      "Ġclients": 3319,
      "Ġworked": 3320,
      "Ġsepar": 3321,
      "Ġintrodu": 3322,
      "Ġinj": 3323,
      "Ġprem": 3324,
      "aint": 3325,
      "ĠPre": 3326,
      "Ġcat": 3327,
      "ĠAmerica": 3328,
      "Ġutil": 3329,
      "omen": 3330,
      "ĠAre": 3331,
      "Ġofficial": 3332,
      "ĠAugust": 3333,
      "Ġstri": 3334,
      "pen": 3335,
      "body": 3336,
      "atives": 3337,
      "Ġbon": 3338,
      "ura": 3339,
      "ĠUp": 3340,
      "ĠJe": 3341,
      "enced": 3342,
      "åŃ": 3343,
      "197": 3344,
      "Ġincluded": 3345,
      "ĠðŁ": 3346,
      "Ġinteresting": 3347,
      "asc": 3348,
      "sych": 3349,
      "Ġdiv": 3350,
      "ĠRead": 3351,
      "Ġadm": 3352,
      "Ġfat": 3353,
      "Ġcountries": 3354,
      "Ke": 3355,
      "ĠFace": 3356,
      "Ġteac": 3357,
      "Ġrecently": 3358,
      "Ġmaintain": 3359,
      "Ġslow": 3360,
      "èĢ": 3361,
      "board": 3362,
      "ocr": 3363,
      "ester": 3364,
      "Ġflow": 3365,
      "ming": 3366,
      "ĠGener": 3367,
      "ita": 3368,
      "Ġround": 3369,
      "Ġsites": 3370,
      "Ġtown": 3371,
      "ube": 3372,
      "odel": 3373,
      "ĠRuss": 3374,
      "Ġgrad": 3375,
      "ecause": 3376,
      "Ġsolution": 3377,
      "Ġwish": 3378,
      "unk": 3379,
      "Ġfight": 3380,
      "Ġmultiple": 3381,
      "ĠNet": 3382,
      "List": 3383,
      "iding": 3384,
      "Ġsell": 3385,
      "Ġinsurance": 3386,
      "ements": 3387,
      "Ġstuff": 3388,
      "ĠMus": 3389,
      "Ġtour": 3390,
      "arter": 3391,
      "Ġemer": 3392,
      "het": 3393,
      "Ġhol": 3394,
      "mp": 3395,
      "unction": 3396,
      "idered": 3397,
      "Ġhelps": 3398,
      "ĠPat": 3399,
      "Ġlatest": 3400,
      "ĠAnt": 3401,
      "ĠCounty": 3402,
      "ashing": 3403,
      "Ġtouch": 3404,
      "aker": 3405,
      "Ġimplement": 3406,
      "Äį": 3407,
      "Ġsche": 3408,
      "Ġfeed": 3409,
      "Ġroll": 3410,
      "umn": 3411,
      "Ġimag": 3412,
      "je": 3413,
      "Ġmachine": 3414,
      "Ġnature": 3415,
      "Ġgave": 3416,
      "Ġvoid": 3417,
      "Ġgets": 3418,
      "ido": 3419,
      "Ġboy": 3420,
      "inn": 3421,
      "Ġauf": 3422,
      "class": 3423,
      "Ġmodern": 3424,
      "Ġsave": 3425,
      "Ġbuilt": 3426,
      "ovember": 3427,
      "ĠDav": 3428,
      "iques": 3429,
      "Ã¢": 3430,
      "ĠWest": 3431,
      "Ġnational": 3432,
      "mas": 3433,
      "Ġparts": 3434,
      "Ġtools": 3435,
      "Ġwide": 3436,
      "icate": 3437,
      "Ġtal": 3438,
      "ĠHar": 3439,
      "Ġboard": 3440,
      "gar": 3441,
      "åĨ": 3442,
      "Ġmessage": 3443,
      "Ġdemand": 3444,
      "Ġing": 3445,
      "Ġrout": 3446,
      "Ġinternet": 3447,
      "Ġhimself": 3448,
      "ĠAc": 3449,
      "Ġprojects": 3450,
      "Ġvariety": 3451,
      "Ġinflu": 3452,
      "Ġcho": 3453,
      "Do": 3454,
      "Des": 3455,
      "Bl": 3456,
      "Ġstudent": 3457,
      "ĠFeb": 3458,
      "Ġsafety": 3459,
      "05": 3460,
      "Ġstreng": 3461,
      "ĠSim": 3462,
      "Ġexpected": 3463,
      "Ġenter": 3464,
      "Ġbegan": 3465,
      "gn": 3466,
      "Ġgroups": 3467,
      "ibly": 3468,
      "Ġfresh": 3469,
      "like": 3470,
      "bt": 3471,
      "odes": 3472,
      "Ġdire": 3473,
      "band": 3474,
      "Ġfeeling": 3475,
      "Ġcosts": 3476,
      "rought": 3477,
      "New": 3478,
      "aling": 3479,
      "Ġshall": 3480,
      "Ġgoal": 3481,
      "ocol": 3482,
      "Ġgives": 3483,
      "Ġfem": 3484,
      "chan": 3485,
      "aught": 3486,
      "ĠHouse": 3487,
      "Ġfair": 3488,
      "Ġeen": 3489,
      "Ġinvolved": 3490,
      "38": 3491,
      "Ġum": 3492,
      "gu": 3493,
      "Ġcouldn": 3494,
      "Ġkit": 3495,
      "Ġsend": 3496,
      "Ġresources": 3497,
      "ĠOb": 3498,
      "yd": 3499,
      "ications": 3500,
      "ĠOut": 3501,
      "Ġinternational": 3502,
      "ĠPresident": 3503,
      "enty": 3504,
      "lo": 3505,
      "Ġtried": 3506,
      "Ġremov": 3507,
      "Ġpositive": 3508,
      "ĠRed": 3509,
      "Ġmaybe": 3510,
      "ora": 3511,
      "orge": 3512,
      "\"\"": 3513,
      "cember": 3514,
      "Ġcry": 3515,
      "aign": 3516,
      "Ġcross": 3517,
      "Add": 3518,
      "04": 3519,
      "Ġcourt": 3520,
      "orage": 3521,
      "Ġpiece": 3522,
      "Ġwritten": 3523,
      "Ġeffects": 3524,
      "Ġmeeting": 3525,
      "Ġexactly": 3526,
      "Ġcomputer": 3527,
      "Ġappe": 3528,
      "Ġinvestig": 3529,
      "ĠCOVID": 3530,
      "Val": 3531,
      "ĠWind": 3532,
      "Ġpropos": 3533,
      "Ġhuge": 3534,
      "Ġsqu": 3535,
      "ĠEnglish": 3536,
      "Ġattempt": 3537,
      "Ġindividuals": 3538,
      "Ġdefinitely": 3539,
      "isf": 3540,
      "ĠDirect": 3541,
      "Ġdisplay": 3542,
      "verse": 3543,
      "Or": 3544,
      "dom": 3545,
      "ii": 3546,
      "ederal": 3547,
      "Ġtowards": 3548,
      "Ġanalysis": 3549,
      "Ġsummer": 3550,
      "Ġprograms": 3551,
      "ĠMr": 3552,
      "ĠTrans": 3553,
      "Ġmi": 3554,
      "Ġnormal": 3555,
      "Ġwid": 3556,
      "ocal": 3557,
      "Ġconsidered": 3558,
      "ĠTV": 3559,
      "ĊĊĠĠĠĠĠĠĠ": 3560,
      "Ġsuff": 3561,
      "Ġcomments": 3562,
      "part": 3563,
      "ĊĊĠĠĠĠ": 3564,
      "Ad": 3565,
      "\".": 3566,
      "Ġphysical": 3567,
      "Ġdaily": 3568,
      "Ġbecame": 3569,
      "________": 3570,
      "Ġdecided": 3571,
      "bed": 3572,
      "ĠThanks": 3573,
      "EO": 3574,
      "Ġsometimes": 3575,
      "åĬ": 3576,
      "Ġcertainly": 3577,
      "Ġenh": 3578,
      "Ġcareer": 3579,
      "met": 3580,
      "using": 3581,
      "Ġgiving": 3582,
      "aged": 3583,
      "Ġlocation": 3584,
      "Ġrev": 3585,
      "Ġrelease": 3586,
      "more": 3587,
      "ĠBro": 3588,
      "Ġgold": 3589,
      "Ġencou": 3590,
      "Ġcomplex": 3591,
      "Ġmis": 3592,
      "yond": 3593,
      "Ġcharg": 3594,
      "App": 3595,
      "acing": 3596,
      "37": 3597,
      "irus": 3598,
      "Ġlanguage": 3599,
      "Ġsubs": 3600,
      "ĠMarket": 3601,
      "Ġorganiz": 3602,
      "ĠChina": 3603,
      "upp": 3604,
      "Ġdevice": 3605,
      "Ġfine": 3606,
      "Ġconsist": 3607,
      "Ġaverage": 3608,
      "Ġbehav": 3609,
      "Ġcelebr": 3610,
      "uk": 3611,
      "ĠPost": 3612,
      "Ġcenter": 3613,
      "09": 3614,
      "down": 3615,
      "Ġwood": 3616,
      "Ġdead": 3617,
      "Ġplans": 3618,
      "hern": 3619,
      "duc": 3620,
      "ĠProf": 3621,
      "Ġtast": 3622,
      "ropri": 3623,
      "Ġload": 3624,
      "Ã¶r": 3625,
      "attle": 3626,
      "02": 3627,
      "Sc": 3628,
      "Ġjud": 3629,
      "Qu": 3630,
      "Ġpurchase": 3631,
      "ened": 3632,
      "enge": 3633,
      "Ġkn": 3634,
      "ĠAng": 3635,
      "Ġstru": 3636,
      "Ġclient": 3637,
      "Ġsection": 3638,
      "Ġgreen": 3639,
      "Ġmark": 3640,
      "itte": 3641,
      "apan": 3642,
      "Not": 3643,
      "Ġdirectly": 3644,
      "Ġlic": 3645,
      "Ġpen": 3646,
      "ĠGerm": 3647,
      "Im": 3648,
      "ategy": 3649,
      "Ġadminist": 3650,
      "ellow": 3651,
      "tre": 3652,
      "Ġtrou": 3653,
      "48": 3654,
      "ĠBest": 3655,
      "ham": 3656,
      "Ġarch": 3657,
      "king": 3658,
      "yt": 3659,
      "Ġmobile": 3660,
      "ald": 3661,
      "Ġdin": 3662,
      "Ġvoice": 3663,
      "Ġlif": 3664,
      "Ġreach": 3665,
      "ĊĠĠĠĠĠĠĠĠĠĠĠĠĠĠĠĠĠĠĠĠ": 3666,
      "Ġwarm": 3667,
      "39": 3668,
      "igen": 3669,
      "ĠInc": 3670,
      "Ġaware": 3671,
      "è®": 3672,
      "Ġrights": 3673,
      "Read": 3674,
      "ĠJanuary": 3675,
      "Ġcup": 3676,
      "Ġid": 3677,
      "Ġobtain": 3678,
      "mercial": 3679,
      "ceed": 3680,
      "rim": 3681,
      "ares": 3682,
      "oper": 3683,
      "list": 3684,
      "Ġfather": 3685,
      "ĠAfric": 3686,
      "Post": 3687,
      "Ġfeature": 3688,
      "yp": 3689,
      "55": 3690,
      "IP": 3691,
      "ĠOctober": 3692,
      "iant": 3693,
      "Ġaltern": 3694,
      "âĢĿ,": 3695,
      "Ġdog": 3696,
      "cil": 3697,
      "Col": 3698,
      "Ġearn": 3699,
      "ĠEvery": 3700,
      "riving": 3701,
      "oms": 3702,
      "Ġpet": 3703,
      "Ġsold": 3704,
      "ĠEr": 3705,
      "sequ": 3706,
      "Ġpark": 3707,
      "Ġdecl": 3708,
      "Ġpolitical": 3709,
      "ĠWar": 3710,
      "Ġcondition": 3711,
      "Ġpressure": 3712,
      "Ġreported": 3713,
      "Ġdream": 3714,
      "Ġdifference": 3715,
      "anch": 3716,
      "Ġfloor": 3717,
      "oly": 3718,
      "ĠCommun": 3719,
      "Ġpow": 3720,
      "Ġcollection": 3721,
      "Ġconcept": 3722,
      "ĠCour": 3723,
      "ĠFree": 3724,
      "ishing": 3725,
      "ague": 3726,
      "pite": 3727,
      "Ġsubst": 3728,
      "ĠVer": 3729,
      "Ġdetail": 3730,
      "éĩ": 3731,
      "Ġadvant": 3732,
      "Ġexcellent": 3733,
      "Ġformer": 3734,
      "Ġesc": 3735,
      "Ġleading": 3736,
      "opping": 3737,
      "Ĥ¬": 3738,
      "08": 3739,
      "After": 3740,
      "reci": 3741,
      "ĠIndia": 3742,
      "Ġactivity": 3743,
      "ĠTechn": 3744,
      "UT": 3745,
      "Ġbreat": 3746,
      "Ġtemper": 3747,
      "They": 3748,
      "Ġemot": 3749,
      "ancy": 3750,
      "ocks": 3751,
      "rage": 3752,
      "Ġstarting": 3753,
      "Ġequipment": 3754,
      "ĠLet": 3755,
      "Ġmovie": 3756,
      "Ġanim": 3757,
      "ga": 3758,
      "Ġcert": 3759,
      "ĠWell": 3760,
      "ias": 3761,
      "data": 3762,
      "ĠFacebook": 3763,
      "Ġtalking": 3764,
      "å·": 3765,
      "Ġhighly": 3766,
      "ĠAlso": 3767,
      "ĠJes": 3768,
      "/*": 3769,
      "æŃ": 3770,
      "Ġdro": 3771,
      "ĠBusiness": 3772,
      "ruary": 3773,
      "Ġded": 3774,
      "vest": 3775,
      "ÃŁ": 3776,
      "ĠEven": 3777,
      "wood": 3778,
      "vey": 3779,
      "ĠAir": 3780,
      "Ġeat": 3781,
      "aches": 3782,
      "Ġdisease": 3783,
      "ipping": 3784,
      "field": 3785,
      "Ġregist": 3786,
      "ĠSan": 3787,
      "Ġhet": 3788,
      "ache": 3789,
      "ä»¬": 3790,
      "Ġfirm": 3791,
      "Ġvous": 3792,
      "igned": 3793,
      "gest": 3794,
      "Ġlack": 3795,
      "atever": 3796,
      "Ã©t": 3797,
      "ĠÃ¨": 3798,
      "ĠAustral": 3799,
      "Ġstates": 3800,
      "Ġstock": 3801,
      "Ã©n": 3802,
      "Ġled": 3803,
      "Ġspeed": 3804,
      "umber": 3805,
      "Ġgar": 3806,
      "Ġir": 3807,
      "olf": 3808,
      "itation": 3809,
      "ties": 3810,
      "itable": 3811,
      "ĠSupp": 3812,
      "åĩ": 3813,
      "ĠGroup": 3814,
      "////": 3815,
      "Ġexpert": 3816,
      "ĠMich": 3817,
      "Ġfrequ": 3818,
      "Ġexerc": 3819,
      "Ġhealthy": 3820,
      "Ġstring": 3821,
      "aries": 3822,
      "Ġsubm": 3823,
      "ĠUK": 3824,
      "arily": 3825,
      "Ġspend": 3826,
      "Ġfeet": 3827,
      "44": 3828,
      "Ġregul": 3829,
      "Ġalone": 3830,
      "reate": 3831,
      "Ġpartners": 3832,
      "Ġabsolut": 3833,
      "Ġorganization": 3834,
      "ĠFirst": 3835,
      "box": 3836,
      "Ġcarry": 3837,
      "Ġconduct": 3838,
      "Ġproviding": 3839,
      "95": 3840,
      "Ab": 3841,
      "ography": 3842,
      "ĊĠĠĠĠĠĠ": 3843,
      "Ġacqu": 3844,
      "izes": 3845,
      "Ġnut": 3846,
      "Ġsolutions": 3847,
      "ĠRem": 3848,
      "SS": 3849,
      "Ġplayer": 3850,
      "Ġcapt": 3851,
      "Ġmid": 3852,
      "/**": 3853,
      "Ġfinally": 3854,
      "rast": 3855,
      "ona": 3856,
      "Ġhistor": 3857,
      "ĠAssoci": 3858,
      "rote": 3859,
      "date": 3860,
      "place": 3861,
      "Ġemb": 3862,
      "Ġvict": 3863,
      "ĠInternational": 3864,
      "Ġplaces": 3865,
      "($": 3866,
      "Ġbrought": 3867,
      "aming": 3868,
      "Ġrespond": 3869,
      "Ġreve": 3870,
      "ula": 3871,
      "Ġadult": 3872,
      "onent": 3873,
      "Ġstrateg": 3874,
      "ĠBrit": 3875,
      "ario": 3876,
      "iforn": 3877,
      "Ġsav": 3878,
      "antly": 3879,
      "Ġagree": 3880,
      "06": 3881,
      "bit": 3882,
      "Ġeye": 3883,
      "ĠKing": 3884,
      "Ġachieve": 3885,
      "ruit": 3886,
      "Ġmaterials": 3887,
      "Ġpattern": 3888,
      "Ġnote": 3889,
      "Ġlocated": 3890,
      "ĠIN": 3891,
      "ĠMost": 3892,
      "arlier": 3893,
      "Ġfully": 3894,
      "ĠNovember": 3895,
      "Ġliter": 3896,
      "ĠService": 3897,
      "Ġmoving": 3898,
      "aughter": 3899,
      "Ġemployees": 3900,
      "roid": 3901,
      "Ġvirt": 3902,
      "Ġgas": 3903,
      "arden": 3904,
      "rive": 3905,
      "Ġunderstanding": 3906,
      "Ġstraight": 3907,
      "Ġinterested": 3908,
      "ini": 3909,
      "Ġloved": 3910,
      "Data": 3911,
      "ibrary": 3912,
      "Ġprogress": 3913,
      "View": 3914,
      "ayer": 3915,
      "Ġinnov": 3916,
      "itute": 3917,
      "Ġhour": 3918,
      "omb": 3919,
      "ĠNews": 3920,
      "Ġsale": 3921,
      "Ġculture": 3922,
      "Ġdouble": 3923,
      "07": 3924,
      "ooth": 3925,
      "idents": 3926,
      "EL": 3927,
      "Ġdry": 3928,
      "icks": 3929,
      "iger": 3930,
      "ville": 3931,
      "Ġnov": 3932,
      "Ġwouldn": 3933,
      "Ġsen": 3934,
      "ĠDem": 3935,
      "bon": 3936,
      "iny": 3937,
      "Ġmount": 3938,
      "isions": 3939,
      "imately": 3940,
      "Ġevidence": 3941,
      "Ġcampaign": 3942,
      "uate": 3943,
      "change": 3944,
      "but": 3945,
      "ivery": 3946,
      "Ġtim": 3947,
      "ĠFe": 3948,
      "oto": 3949,
      "ĠLaw": 3950,
      "apter": 3951,
      "Ġbirth": 3952,
      "Ġentre": 3953,
      "196": 3954,
      "Ġrestaur": 3955,
      "ker": 3956,
      "Ġcreating": 3957,
      "Ġaccom": 3958,
      "ĠServices": 3959,
      "ĠDecember": 3960,
      "osit": 3961,
      "ĠHome": 3962,
      "PS": 3963,
      "lig": 3964,
      "ounds": 3965,
      "ĠDepartment": 3966,
      "Ġaren": 3967,
      "ady": 3968,
      "iers": 3969,
      "urrent": 3970,
      "Ġuns": 3971,
      "vo": 3972,
      "Ġcash": 3973,
      "Ġprefer": 3974,
      "Ġinterview": 3975,
      "Ġheat": 3976,
      "lin": 3977,
      "Ġessential": 3978,
      "Ġfamil": 3979,
      "Ġthrow": 3980,
      "Ġextrem": 3981,
      "========": 3982,
      "Ġplayed": 3983,
      "Ġnull": 3984,
      "lying": 3985,
      "Ġlib": 3986,
      "ifornia": 3987,
      "Ġbroad": 3988,
      "nÃŃ": 3989,
      "Ġsy": 3990,
      "Ġlimited": 3991,
      "CH": 3992,
      "ribute": 3993,
      "Here": 3994,
      "Ġwat": 3995,
      "Ġpolice": 3996,
      "å¥": 3997,
      "Ġcontinu": 3998,
      "nie": 3999,
      "UN": 4000,
      "Ġrelig": 4001,
      "Ġpublished": 4002,
      "Ġfab": 4003,
      "Ġuses": 4004,
      "Ġproced": 4005,
      "Ġhappened": 4006,
      "Ġbaby": 4007,
      "Ġhop": 4008,
      "Ġphotos": 4009,
      "OL": 4010,
      "ĠProgram": 4011,
      "ĠPlease": 4012,
      "overn": 4013,
      "Ġpromot": 4014,
      "icip": 4015,
      "bol": 4016,
      "idad": 4017,
      "uration": 4018,
      "quest": 4019,
      "Ġcontain": 4020,
      "inger": 4021,
      "ĠGo": 4022,
      "Ġeffort": 4023,
      "Ġoccur": 4024,
      "Ġstress": 4025,
      "ael": 4026,
      "Ġdeveloped": 4027,
      "ello": 4028,
      "Ġrequirements": 4029,
      "ondon": 4030,
      "Now": 4031,
      "lean": 4032,
      "Ġsmart": 4033,
      "Ġaim": 4034,
      "Ġbur": 4035,
      "ĠII": 4036,
      "Ġfear": 4037,
      "Ġpicture": 4038,
      "Ġfalse": 4039,
      "Ġgrowing": 4040,
      "ounced": 4041,
      "Ġplanning": 4042,
      "Thanks": 4043,
      "Ġincreased": 4044,
      "Ġwants": 4045,
      "Ġtend": 4046,
      "ĠOnline": 4047,
      "Ġstudies": 4048,
      "Ind": 4049,
      "Ġstories": 4050,
      "Ãº": 4051,
      "?âĢĿ": 4052,
      "includ": 4053,
      "Ġclin": 4054,
      "Ġopin": 4055,
      "Ġexecut": 4056,
      "amente": 4057,
      "Ġdrop": 4058,
      "Ġrefer": 4059,
      "oming": 4060,
      "Int": 4061,
      "Ġfarm": 4062,
      "Ġsuccessful": 4063,
      "itude": 4064,
      "Ġpaid": 4065,
      "Ġassess": 4066,
      "istics": 4067,
      "Ġthanks": 4068,
      "pond": 4069,
      "ĠCoun": 4070,
      "Ġassociated": 4071,
      "Ġmer": 4072,
      "AB": 4073,
      "Ġbusinesses": 4074,
      "ĠReview": 4075,
      "rapy": 4076,
      "ĊĠĠĠĠĠĠĠĠĠĠĠĠĠĠĠĠĠĠĠ": 4077,
      "Ġjour": 4078,
      "Ġcateg": 4079,
      "itÃ©": 4080,
      "aled": 4081,
      "Ġeasier": 4082,
      "Ġframe": 4083,
      "Ġreduce": 4084,
      "erved": 4085,
      "ĠJapan": 4086,
      "Ġneigh": 4087,
      "rief": 4088,
      "Ġwonderful": 4089,
      "rial": 4090,
      "Ġforce": 4091,
      "Ġstream": 4092,
      "ronic": 4093,
      "Ġcomo": 4094,
      "Ġdemon": 4095,
      "pecial": 4096,
      "Ġattract": 4097,
      "icient": 4098,
      "Ġpurpose": 4099,
      "Â·": 4100,
      "Ġguy": 4101,
      "Ġprices": 4102,
      "Ġcontribut": 4103,
      "Ġaspect": 4104,
      "ously": 4105,
      "ffee": 4106,
      "Ġconsult": 4107,
      "Ġprofession": 4108,
      "Ġactive": 4109,
      "Ġpatient": 4110,
      "pm": 4111,
      "Ġeconomic": 4112,
      "Ġmeaning": 4113,
      "ito": 4114,
      "div": 4115,
      "nown": 4116,
      "rench": 4117,
      "Ġbeginning": 4118,
      "iced": 4119,
      "Ġtitle": 4120,
      "ran": 4121,
      "ĠInter": 4122,
      "cher": 4123,
      "oday": 4124,
      "IL": 4125,
      "300": 4126,
      "ĠGood": 4127,
      "Ġsteps": 4128,
      "Ġband": 4129,
      "Ġtrip": 4130,
      "ĠBook": 4131,
      "Ġmilit": 4132,
      "annel": 4133,
      "Ġcold": 4134,
      "cz": 4135,
      "Ġappreci": 4136,
      "ĠWork": 4137,
      "Ġglass": 4138,
      "ml": 4139,
      "iance": 4140,
      "Ġthreat": 4141,
      "Ġspread": 4142,
      "ĠWeb": 4143,
      "iÃ¨": 4144,
      "Ġregion": 4145,
      "unday": 4146,
      "Ġthank": 4147,
      "Ġchanged": 4148,
      "ĠPort": 4149,
      "Ġbeyond": 4150,
      "amic": 4151,
      "undred": 4152,
      "\":": 4153,
      "Ġreasons": 4154,
      "Ġmill": 4155,
      "ĠSen": 4156,
      "Ġaf": 4157,
      "Ġconv": 4158,
      "ĠJesus": 4159,
      "Ġdoll": 4160,
      "ĠWhy": 4161,
      "Ġwife": 4162,
      "Ġtraditional": 4163,
      "ĠJack": 4164,
      "acity": 4165,
      "Ġdistribut": 4166,
      "From": 4167,
      "path": 4168,
      "Ġnumbers": 4169,
      "Ġguide": 4170,
      "Ġreleased": 4171,
      "Ġblue": 4172,
      "inated": 4173,
      "Ġeval": 4174,
      "++": 4175,
      "Ġspirit": 4176,
      "Ġstar": 4177,
      "Ġcollege": 4178,
      "Ġpresident": 4179,
      "iring": 4180,
      "Ġsatisf": 4181,
      "ĠSl": 4182,
      "Ġapplications": 4183,
      "Ġvalues": 4184,
      "ente": 4185,
      "Ġmal": 4186,
      "Ġdrink": 4187,
      "ige": 4188,
      "Ġcharge": 4189,
      "Ġspent": 4190,
      "Ġguess": 4191,
      "ati": 4192,
      "Ġimmediately": 4193,
      "Ġcopy": 4194,
      "å¸": 4195,
      "Ġnu": 4196,
      "Ġult": 4197,
      "Ġlength": 4198,
      "\");": 4199,
      "ĠSk": 4200,
      "ĠFriday": 4201,
      "Ob": 4202,
      "ipped": 4203,
      "Ġstage": 4204,
      "ĠDel": 4205,
      "Ġcru": 4206,
      "IV": 4207,
      "49": 4208,
      "ĠDet": 4209,
      "Ġbenefit": 4210,
      "orrow": 4211,
      "ĠGreat": 4212,
      "Ġrules": 4213,
      "Ġrates": 4214,
      "Ġactual": 4215,
      "size": 4216,
      "Ġallowed": 4217,
      "Ġarriv": 4218,
      "ford": 4219,
      "Ġdeliver": 4220,
      "azon": 4221,
      "Ġtruly": 4222,
      "IG": 4223,
      "65": 4224,
      "Ġhom": 4225,
      "hest": 4226,
      "Ġappropri": 4227,
      "ivil": 4228,
      "Ġbes": 4229,
      "Ġclub": 4230,
      "Ġthous": 4231,
      "ĠOther": 4232,
      "Ġdamage": 4233,
      "aturday": 4234,
      "Ġparticularly": 4235,
      "Ġcapital": 4236,
      "edding": 4237,
      "vention": 4238,
      "da": 4239,
      "pack": 4240,
      "bum": 4241,
      "ĠPal": 4242,
      "Ġhous": 4243,
      "MS": 4244,
      "Ġgone": 4245,
      "ados": 4246,
      "??": 4247,
      "osing": 4248,
      "emy": 4249,
      "ania": 4250,
      "care": 4251,
      "net": 4252,
      "Ġnearly": 4253,
      "onday": 4254,
      "venue": 4255,
      "Å¡": 4256,
      "Ġerr": 4257,
      "Ġgoals": 4258,
      "Ġincreasing": 4259,
      "Ġimages": 4260,
      "Ġlines": 4261,
      "ĠDesign": 4262,
      "Ġadjust": 4263,
      "ocation": 4264,
      "Ġsust": 4265,
      "Ġindepend": 4266,
      "see": 4267,
      "inder": 4268,
      "Ġopportunities": 4269,
      "pping": 4270,
      "Ġbasic": 4271,
      "Ġreviews": 4272,
      "Ġearlier": 4273,
      "CT": 4274,
      "Ġavec": 4275,
      "istry": 4276,
      "force": 4277,
      "[]": 4278,
      "term": 4279,
      "Ġspot": 4280,
      ":)": 4281,
      "sk": 4282,
      "ashion": 4283,
      "ĠMet": 4284,
      "Ġvo": 4285,
      "ĠFebruary": 4286,
      "Ġmodels": 4287,
      "ĠDevelop": 4288,
      "eah": 4289,
      "asy": 4290,
      "Ġoverall": 4291,
      "from": 4292,
      "Ġtick": 4293,
      "ĠStreet": 4294,
      "ä¸º": 4295,
      "Ġsweet": 4296,
      "Ġtu": 4297,
      "ports": 4298,
      "ĠCalifornia": 4299,
      "Ġmethods": 4300,
      "Ġuseful": 4301,
      "!\"": 4302,
      "Ġthoughts": 4303,
      "Ġinvestment": 4304,
      "ĠGold": 4305,
      "Ġhus": 4306,
      "Ġgift": 4307,
      "Ġshown": 4308,
      "ĠCr": 4309,
      "DO": 4310,
      "efore": 4311,
      "rab": 4312,
      "Ġstrategy": 4313,
      "log": 4314,
      "Ġtom": 4315,
      "ĠPhil": 4316,
      "La": 4317,
      "Ġtruth": 4318,
      "å¤§": 4319,
      "Ġerror": 4320,
      "print": 4321,
      "Ġsupply": 4322,
      "const": 4323,
      "Ġrent": 4324,
      "cks": 4325,
      "Ġprote": 4326,
      "Ġmeasure": 4327,
      "03": 4328,
      "ĠPM": 4329,
      "Ġcit": 4330,
      "ĠAny": 4331,
      "ĠCanada": 4332,
      "Ġscience": 4333,
      "point": 4334,
      "Ġfol": 4335,
      "ĠBen": 4336,
      "Ġpaint": 4337,
      "house": 4338,
      "ĠWhite": 4339,
      "Ġcandid": 4340,
      "ĠRet": 4341,
      "Ġbudget": 4342,
      "Sp": 4343,
      "ä¸Ń": 4344,
      "Ġmiddle": 4345,
      "mail": 4346,
      "Ġwrote": 4347,
      "cel": 4348,
      "ĠEst": 4349,
      "ola": 4350,
      "string": 4351,
      "Ġstructure": 4352,
      "')": 4353,
      "Ġcompared": 4354,
      "rupt": 4355,
      "Ġpsych": 4356,
      "Ġscient": 4357,
      "itect": 4358,
      "Ġbackground": 4359,
      "zi": 4360,
      "Ġhaven": 4361,
      "ĠSuper": 4362,
      "ĠAP": 4363,
      "nen": 4364,
      "ĠSub": 4365,
      "ĊĠĠĠĠĠĠĠĠĠĠĠĠĠĠĠĠĠĠĠĠĠĠĠĠ": 4366,
      "ĠCB": 4367,
      "Ġmechan": 4368,
      "iled": 4369,
      "Ġseg": 4370,
      "ĠChristmas": 4371,
      "Ġmoved": 4372,
      "Ġnation": 4373,
      "Ġseeing": 4374,
      "Ġrock": 4375,
      "Ġdegree": 4376,
      "Ġobvious": 4377,
      "lich": 4378,
      "Ġguys": 4379,
      "Me": 4380,
      "Âł": 4381,
      "illa": 4382,
      "Ġwindow": 4383,
      "Ġkitchen": 4384,
      "Ġgreater": 4385,
      "Ġpartner": 4386,
      "Ġstrugg": 4387,
      "Ġdiet": 4388,
      "ĠMor": 4389,
      "ĠIl": 4390,
      "Ġconfig": 4391,
      "Ġsurv": 4392,
      "Ġstatement": 4393,
      "esome": 4394,
      "Ġtransport": 4395,
      "ĠGreen": 4396,
      "Ã¨s": 4397,
      "Ġdevices": 4398,
      "ĠOver": 4399,
      "IM": 4400,
      "wide": 4401,
      "Ġlimit": 4402,
      "ä¸ª": 4403,
      "ja": 4404,
      "Er": 4405,
      "free": 4406,
      "åº": 4407,
      "Ġteams": 4408,
      "porate": 4409,
      "ani": 4410,
      "inate": 4411,
      "å¯": 4412,
      "ĠPlan": 4413,
      "ĠLondon": 4414,
      "Ġtout": 4415,
      "Ġcommercial": 4416,
      "Ġserve": 4417,
      "Ġsurface": 4418,
      "Ġtoward": 4419,
      "Ġsich": 4420,
      "ittee": 4421,
      "Ġpm": 4422,
      "ĠBet": 4423,
      "Ġalthough": 4424,
      "Ġprotection": 4425,
      "ĠManagement": 4426,
      "Ġsharing": 4427,
      "Ġperhaps": 4428,
      "encies": 4429,
      "ellig": 4430,
      "Ġinstitut": 4431,
      "ĠÃ©t": 4432,
      "Ġbasis": 4433,
      "Ġjoin": 4434,
      "ĠItal": 4435,
      "Ġcontext": 4436,
      "Ġhundred": 4437,
      "Ġsetting": 4438,
      "Ġpoor": 4439,
      "ĠCollege": 4440,
      "Ġfamilies": 4441,
      "andom": 4442,
      "ãĢģ": 4443,
      "isation": 4444,
      "Ġconnection": 4445,
      "åĴ": 4446,
      "iling": 4447,
      "ca": 4448,
      "Ġom": 4449,
      "Ġtransfer": 4450,
      "Ġregarding": 4451,
      "Ġpowerful": 4452,
      "vere": 4453,
      "Ġfigure": 4454,
      "Ġnicht": 4455,
      "Ġfant": 4456,
      "lied": 4457,
      "Ġstatus": 4458,
      "âĢĶâĢĶ": 4459,
      "Ġfiles": 4460,
      "Ġquant": 4461,
      "file": 4462,
      "Ġhospital": 4463,
      "Ġremain": 4464,
      "Ġreflect": 4465,
      "ĠMac": 4466,
      "47": 4467,
      "Ġmicro": 4468,
      "Ġok": 4469,
      "Ġtut": 4470,
      "othing": 4471,
      "Ġstrength": 4472,
      "param": 4473,
      "Ġconstruction": 4474,
      "Ġrace": 4475,
      "Ġnotice": 4476,
      "atus": 4477,
      "Ġang": 4478,
      "Why": 4479,
      "çİ": 4480,
      "empl": 4481,
      "['": 4482,
      "onents": 4483,
      "ago": 4484,
      "estern": 4485,
      "iner": 4486,
      "Ġoffered": 4487,
      "icious": 4488,
      "atively": 4489,
      "Rec": 4490,
      "hem": 4491,
      "ena": 4492,
      "####": 4493,
      "Ġcells": 4494,
      "Ġnames": 4495,
      "Ġbrow": 4496,
      "ela": 4497,
      "Ġpal": 4498,
      "inding": 4499,
      "Ġbrain": 4500,
      "Ġdress": 4501,
      "ĠPaul": 4502,
      "Ġwild": 4503,
      "ĠBer": 4504,
      "Ġtrade": 4505,
      "with": 4506,
      "These": 4507,
      "Ġdies": 4508,
      "dule": 4509,
      "ho": 4510,
      "ban": 4511,
      "Ġfollowed": 4512,
      "ashington": 4513,
      "Ġarr": 4514,
      "Ġpu": 4515,
      "Ġcollabor": 4516,
      "ĠStr": 4517,
      "Ġton": 4518,
      "Ġrap": 4519,
      "ĠResearch": 4520,
      "Ġslight": 4521,
      "Ġcast": 4522,
      "Ġarm": 4523,
      "Ġluck": 4524,
      "orry": 4525,
      "Ġahead": 4526,
      "Man": 4527,
      "opped": 4528,
      "ĠHot": 4529,
      "friend": 4530,
      "fe": 4531,
      "Ġbottom": 4532,
      "_{": 4533,
      "ĠDist": 4534,
      "æĿ¥": 4535,
      "ĠAN": 4536,
      "Don": 4537,
      "Ġburn": 4538,
      "Ġchem": 4539,
      "ä¸Ĭ": 4540,
      "ĠMod": 4541,
      "DA": 4542,
      "ifying": 4543,
      "Ġmais": 4544,
      "ĠIns": 4545,
      "asure": 4546,
      "Ġpages": 4547,
      "Ġsports": 4548,
      "ĠDie": 4549,
      "Ġincome": 4550,
      "Ġadvice": 4551,
      "ĠMany": 4552,
      "åĪ°": 4553,
      "Ġupdate": 4554,
      "ĠSal": 4555,
      "Ġshot": 4556,
      "Ġign": 4557,
      "Ġpopulation": 4558,
      "46": 4559,
      "Your": 4560,
      "Ġfactors": 4561,
      "Ġafford": 4562,
      "aper": 4563,
      "amily": 4564,
      "ĠRel": 4565,
      "Ġextremely": 4566,
      "ĠMicro": 4567,
      "Ġtrend": 4568,
      "Ġbra": 4569,
      "ben": 4570,
      "actions": 4571,
      "Ġharm": 4572,
      "Ġkept": 4573,
      "Ġcatch": 4574,
      "ĠPlay": 4575,
      "essage": 4576,
      "ĠRom": 4577,
      "iable": 4578,
      "Ġpand": 4579,
      "Ġtro": 4580,
      "While": 4581,
      "ĠAM": 4582,
      "Ġlock": 4583,
      "url": 4584,
      "Ġmeant": 4585,
      "osition": 4586,
      "Ġlots": 4587,
      "ĠEuropean": 4588,
      "Ġstatic": 4589,
      "èĩ": 4590,
      "err": 4591,
      "ĠST": 4592,
      "levant": 4593,
      "ducation": 4594,
      "Ġdating": 4595,
      "Ġaus": 4596,
      "ĠAv": 4597,
      "ĠHol": 4598,
      "iones": 4599,
      "Ġwear": 4600,
      "ĠPC": 4601,
      "Ġwer": 4602,
      "ĠUse": 4603,
      "æķ": 4604,
      "Ġbath": 4605,
      "phone": 4606,
      "anging": 4607,
      "ĠSie": 4608,
      "Ġphoto": 4609,
      "ĠĊ": 4610,
      "Ġshop": 4611,
      "Ġbrother": 4612,
      "Ġadvert": 4613,
      "Ġprimary": 4614,
      "Over": 4615,
      "RA": 4616,
      "bar": 4617,
      "overy": 4618,
      "soft": 4619,
      "Ġgirls": 4620,
      "Ġmist": 4621,
      "Ġpayment": 4622,
      "DE": 4623,
      "88": 4624,
      "ĠWindows": 4625,
      "hand": 4626,
      "Ġvehicle": 4627,
      "ĠEv": 4628,
      "ownload": 4629,
      "Ġanti": 4630,
      "Ġdim": 4631,
      "Ġguid": 4632,
      "redients": 4633,
      "Ġproduce": 4634,
      "Ġlaws": 4635,
      "Ġreports": 4636,
      "Ġpush": 4637,
      "Ġresist": 4638,
      "ĠInformation": 4639,
      "ĠString": 4640,
      "Ġshared": 4641,
      "Ġnie": 4642,
      "Ġrob": 4643,
      "ses": 4644,
      "Ġmort": 4645,
      "Ġshoot": 4646,
      "hens": 4647,
      "Ġwhatever": 4648,
      "Thank": 4649,
      "Ġhat": 4650,
      "ÈĽ": 4651,
      "SP": 4652,
      "ĠDavid": 4653,
      "Ġrequires": 4654,
      "etic": 4655,
      "public": 4656,
      "ĠSunday": 4657,
      "ervice": 4658,
      "Ne": 4659,
      "ĠDan": 4660,
      "ĠBel": 4661,
      "Ġsociety": 4662,
      "ologies": 4663,
      "Ġhelped": 4664,
      "rad": 4665,
      "ĠMart": 4666,
      "Ġhandle": 4667,
      "âĢŀ": 4668,
      "ĠClass": 4669,
      "èµ": 4670,
      "Ġchallenge": 4671,
      "Ġbatter": 4672,
      "ĠIndian": 4673,
      "icine": 4674,
      "udd": 4675,
      "zer": 4676,
      "Ġimpl": 4677,
      "Ġwhose": 4678,
      "Ġcra": 4679,
      "BC": 4680,
      "Ġaccur": 4681,
      "!!!": 4682,
      "Ġexisting": 4683,
      "Ġcards": 4684,
      "riage": 4685,
      "Ġowners": 4686,
      "Ġhar": 4687,
      "Ġbag": 4688,
      "Ġoccas": 4689,
      "ĠTime": 4690,
      "Ġincred": 4691,
      "Ġvac": 4692,
      "Ġcancer": 4693,
      "osis": 4694,
      "ungen": 4695,
      "ander": 4696,
      "ĠGovern": 4697,
      "Ġschools": 4698,
      "));": 4699,
      "Ġseemed": 4700,
      "Ġgenerally": 4701,
      "ĠList": 4702,
      "Ġstorage": 4703,
      "ĠEast": 4704,
      "Ġeine": 4705,
      "tes": 4706,
      "Ġeight": 4707,
      "Ġmentioned": 4708,
      "pective": 4709,
      "Ġpassed": 4710,
      "Ġnumer": 4711,
      "iation": 4712,
      "ĠYear": 4713,
      "Ġsitu": 4714,
      "ĠÃ®": 4715,
      "uj": 4716,
      "icon": 4717,
      "mo": 4718,
      "rey": 4719,
      "Ġpeace": 4720,
      "uer": 4721,
      "Ġprinc": 4722,
      "Ġhusband": 4723,
      "CC": 4724,
      "Ġexpand": 4725,
      "ĠThank": 4726,
      "ĠmÃ¡s": 4727,
      "mes": 4728,
      "Ġmir": 4729,
      "EM": 4730,
      "Ġchurch": 4731,
      "ĠMag": 4732,
      "cha": 4733,
      "Ġannounced": 4734,
      "Ġlose": 4735,
      "Ste": 4736,
      "150": 4737,
      "Ġunc": 4738,
      "isl": 4739,
      "///": 4740,
      "Ġcab": 4741,
      "ras": 4742,
      "olic": 4743,
      "iber": 4744,
      "ĠData": 4745,
      "ancing": 4746,
      "Ġbul": 4747,
      "Ġideal": 4748,
      "oin": 4749,
      "Ġexperienced": 4750,
      "Ġcritical": 4751,
      "ĠInternet": 4752,
      "().": 4753,
      "Ġtips": 4754,
      "lor": 4755,
      "Ġfra": 4756,
      "Ġjobs": 4757,
      "agram": 4758,
      "Ġcomfortable": 4759,
      "ĠTex": 4760,
      "!=": 4761,
      "Ġresponsible": 4762,
      "Ġdelivery": 4763,
      "Ġinstance": 4764,
      "Ã©es": 4765,
      "ĠHel": 4766,
      "NA": 4767,
      "ustr": 4768,
      "Ġmap": 4769,
      "ĠSam": 4770,
      "Ġweekend": 4771,
      "Ġmulti": 4772,
      "how": 4773,
      "rend": 4774,
      "Ġinstruct": 4775,
      "Ġmanage": 4776,
      "Ġbillion": 4777,
      "useum": 4778,
      "Ġsurround": 4779,
      "test": 4780,
      "Ġinitial": 4781,
      "Ġelectric": 4782,
      "Ġreality": 4783,
      "Ġlearned": 4784,
      "Ġloan": 4785,
      "Ġstick": 4786,
      "ĠLike": 4787,
      "Ġvacc": 4788,
      "Ġgro": 4789,
      "ĠBecause": 4790,
      "hips": 4791,
      "****************": 4792,
      "rite": 4793,
      "Ġmiles": 4794,
      "Ġlab": 4795,
      "oes": 4796,
      "Ġattend": 4797,
      "uman": 4798,
      "Ġoffering": 4799,
      "Ġdrug": 4800,
      "eters": 4801,
      "éģ": 4802,
      "Ġelements": 4803,
      "ĠOh": 4804,
      "itar": 4805,
      "Posted": 4806,
      "Ġadvantage": 4807,
      "Ġborn": 4808,
      "Ġbutton": 4809,
      "acters": 4810,
      "Ġvalid": 4811,
      "Ġpros": 4812,
      "ĠPeople": 4813,
      "lished": 4814,
      "ĠMake": 4815,
      "åİ": 4816,
      "Ġonto": 4817,
      "ĠTop": 4818,
      "Ġunf": 4819,
      "Ġsolid": 4820,
      "42": 4821,
      "æĢ": 4822,
      "Ġmovement": 4823,
      "ĊĊĠ": 4824,
      "Ġdisapp": 4825,
      "ĠJames": 4826,
      "rael": 4827,
      "gency": 4828,
      "Ġoch": 4829,
      "anned": 4830,
      "span": 4831,
      "inst": 4832,
      "ĠChristian": 4833,
      "Ġcart": 4834,
      "ĠDec": 4835,
      "><": 4836,
      "Ġmental": 4837,
      "Ġfan": 4838,
      "ĠWord": 4839,
      "Ġlarger": 4840,
      "Ġdied": 4841,
      "Ġpictures": 4842,
      "ĠOnce": 4843,
      "åĴĮ": 4844,
      "ĠCare": 4845,
      "ĠCas": 4846,
      "Ġhappens": 4847,
      "å¿": 4848,
      "Ġefforts": 4849,
      "Ġremove": 4850,
      "Ġhelping": 4851,
      "Ġwa": 4852,
      "endo": 4853,
      "Ġjourney": 4854,
      "Ġpieces": 4855,
      "usion": 4856,
      "ota": 4857,
      "value": 4858,
      "Ġtherefore": 4859,
      "ĠGeneral": 4860,
      "Up": 4861,
      "Ġworkers": 4862,
      "Ġfinding": 4863,
      "pat": 4864,
      "Ġsecret": 4865,
      "clusion": 4866,
      "coming": 4867,
      "ĠWashington": 4868,
      "Ġmilitary": 4869,
      "osh": 4870,
      "Ġunit": 4871,
      "Ġwaiting": 4872,
      "Ġbow": 4873,
      "atically": 4874,
      "ĠFound": 4875,
      "ummary": 4876,
      "ech": 4877,
      "well": 4878,
      "Yes": 4879,
      "ĠLife": 4880,
      "Ġolder": 4881,
      "ĠSaturday": 4882,
      "Ġmonitor": 4883,
      "pet": 4884,
      "Ġmouth": 4885,
      "ĠTest": 4886,
      "Ġauch": 4887,
      "Ġfans": 4888,
      "Ġju": 4889,
      "works": 4890,
      "Acc": 4891,
      "Ġheavy": 4892,
      "Ġvs": 4893,
      "Ġdepend": 4894,
      "akers": 4895,
      "Reg": 4896,
      "ĠSur": 4897,
      "è§": 4898,
      "Ġclosed": 4899,
      "Ġcoffee": 4900,
      "Ġappropriate": 4901,
      "Ġcontinued": 4902,
      "ĠMal": 4903,
      "Ġdanger": 4904,
      "Ġguar": 4905,
      "Ġtesting": 4906,
      "Ġod": 4907,
      "ĠPublic": 4908,
      "Ġknows": 4909,
      "anta": 4910,
      "Ġletter": 4911,
      "Some": 4912,
      "erences": 4913,
      "Ġsounds": 4914,
      "Ġspl": 4915,
      "Ġcos": 4916,
      "rat": 4917,
      "çĽ": 4918,
      "asks": 4919,
      "ideo": 4920,
      "Ġfaith": 4921,
      "Ġchallenges": 4922,
      "IR": 4923,
      "LO": 4924,
      "wo": 4925,
      "ursday": 4926,
      "ĠCompany": 4927,
      "ĠMonday": 4928,
      "$\\": 4929,
      "Ġindic": 4930,
      "acht": 4931,
      "Ġera": 4932,
      "ĠMem": 4933,
      "Ġdirection": 4934,
      "Ġals": 4935,
      "Ġnom": 4936,
      "ĠIT": 4937,
      "ternal": 4938,
      "Ġgraph": 4939,
      "Ġcounter": 4940,
      "ĠCourt": 4941,
      "var": 4942,
      "inally": 4943,
      "ĠMa": 4944,
      "Ġpub": 4945,
      "ĠSee": 4946,
      "icken": 4947,
      "ems": 4948,
      "ĠSpr": 4949,
      "Ġtree": 4950,
      "ua": 4951,
      "Ġsecure": 4952,
      "iller": 4953,
      "ĠPower": 4954,
      "ednes": 4955,
      "ä»¥": 4956,
      "Ġtask": 4957,
      "Ġfinish": 4958,
      "ĠDef": 4959,
      "equ": 4960,
      "inese": 4961,
      "ius": 4962,
      "ĠCap": 4963,
      "ffect": 4964,
      "Ġrich": 4965,
      "ĠOffice": 4966,
      "ĠLord": 4967,
      "roy": 4968,
      "ĠRich": 4969,
      "Ġmemory": 4970,
      "Ġflex": 4971,
      "æł": 4972,
      "éĤ": 4973,
      "ooking": 4974,
      "ba": 4975,
      "ĠHall": 4976,
      "Ġlinks": 4977,
      "Ġdefault": 4978,
      "enses": 4979,
      "Ġmanufacture": 4980,
      "ference": 4981,
      "åľ°": 4982,
      "Ġmale": 4983,
      "Ã¤r": 4984,
      "Of": 4985,
      "ĠSil": 4986,
      "ĠCam": 4987,
      "cles": 4988,
      "Key": 4989,
      "Ġbeg": 4990,
      "berg": 4991,
      "uts": 4992,
      "ç§": 4993,
      "oles": 4994,
      "ĠAtt": 4995,
      "orial": 4996,
      "ĠSet": 4997,
      "ĠPrice": 4998,
      "Ġscen": 4999,
      "Please": 5000,
      "Ġpool": 5001,
      "zie": 5002,
      "Ġenhance": 5003,
      "};": 5004,
      "Ġrepe": 5005,
      "Ġdur": 5006,
      "ĠYes": 5007,
      "lies": 5008,
      "Ġfuck": 5009,
      "ĠProject": 5010,
      "ĠForm": 5011,
      "Oh": 5012,
      "Ġrid": 5013,
      "Ġrat": 5014,
      "Ġweather": 5015,
      "Ġcommunication": 5016,
      "Ġdetermine": 5017,
      "uesday": 5018,
      "SE": 5019,
      "ĠRepublic": 5020,
      "195": 5021,
      "Ġtransl": 5022,
      "è¡": 5023,
      "éĥ": 5024,
      "Ġaward": 5025,
      "Ġalbum": 5026,
      "ortunately": 5027,
      "Ġdella": 5028,
      "Ġelement": 5029,
      "Ġprepar": 5030,
      "Ġexperiences": 5031,
      "Ġdoctor": 5032,
      "Ġdriving": 5033,
      "Ġwatching": 5034,
      "eline": 5035,
      "Ġworry": 5036,
      "ls": 5037,
      "ĠSince": 5038,
      "Ġactions": 5039,
      "Ġcamera": 5040,
      "Ġsympt": 5041,
      "alls": 5042,
      "eless": 5043,
      "ya": 5044,
      "ĠCheck": 5045,
      "ĊĊĉ": 5046,
      "Ġhotel": 5047,
      "Ġexcept": 5048,
      "Ġoptim": 5049,
      "Ġconven": 5050,
      "Ġconcent": 5051,
      "ĠÐ": 5052,
      "Inst": 5053,
      "Set": 5054,
      "ĠsiÄĻ": 5055,
      "active": 5056,
      "Ġpolic": 5057,
      "Ġcharacters": 5058,
      "Ġdemonstr": 5059,
      "pan": 5060,
      "unc": 5061,
      "Ġepis": 5062,
      "ĠFrench": 5063,
      "](": 5064,
      "Ġchat": 5065,
      "ĠTrump": 5066,
      "Ġcommit": 5067,
      "Ġbalance": 5068,
      "ĠProduct": 5069,
      "78": 5070,
      "Ġcompar": 5071,
      "ĠLove": 5072,
      "nel": 5073,
      "perty": 5074,
      "reme": 5075,
      "Ġdiscover": 5076,
      "Ġfinished": 5077,
      "ala": 5078,
      "ounce": 5079,
      "Ġselection": 5080,
      "fol": 5081,
      "Ġkeeping": 5082,
      "ĠBig": 5083,
      "More": 5084,
      "ĠVis": 5085,
      "Ġflu": 5086,
      "aren": 5087,
      "400": 5088,
      "Pr": 5089,
      "Ġvent": 5090,
      "âĢ¦]": 5091,
      "amin": 5092,
      "lete": 5093,
      "Ġvideos": 5094,
      "ria": 5095,
      "Ġhonest": 5096,
      "Ġcontroll": 5097,
      "iva": 5098,
      "Ġmaster": 5099,
      "Ġpun": 5100,
      "Ġgun": 5101,
      "earn": 5102,
      "Ġalt": 5103,
      "Ġposts": 5104,
      "ĠSom": 5105,
      "ĠBoard": 5106,
      "Ġrelax": 5107,
      "Ġestablish": 5108,
      "och": 5109,
      "ednesday": 5110,
      "Ġaudience": 5111,
      "Ġinfo": 5112,
      "inct": 5113,
      "porary": 5114,
      "Value": 5115,
      "Ġfederal": 5116,
      "ading": 5117,
      "Ġvill": 5118,
      "acement": 5119,
      "CA": 5120,
      "ĠBank": 5121,
      "mark": 5122,
      "Ġhighest": 5123,
      "Ġdos": 5124,
      "Ġforget": 5125,
      "Ġsin": 5126,
      "Ġdiagn": 5127,
      "osure": 5128,
      "Ġcommand": 5129,
      "Ġcris": 5130,
      "ĠÂ£": 5131,
      "iat": 5132,
      "ĠAmazon": 5133,
      "Ġappoint": 5134,
      "Ġopening": 5135,
      "entially": 5136,
      "Fr": 5137,
      "rd": 5138,
      "Ġtrain": 5139,
      "ads": 5140,
      "Ġlargest": 5141,
      "ĠAnn": 5142,
      "Ġorganizations": 5143,
      "Ġseven": 5144,
      "Ġserver": 5145,
      "rer": 5146,
      "OP": 5147,
      "des": 5148,
      "éĹ": 5149,
      "ĠOpen": 5150,
      "ĠUSA": 5151,
      "iliar": 5152,
      "Ġcontains": 5153,
      "[âĢ¦]": 5154,
      "ĠMiss": 5155,
      "Che": 5156,
      "ĠRob": 5157,
      "ĠWater": 5158,
      "Ġyes": 5159,
      "Can": 5160,
      "Ġfeat": 5161,
      "iler": 5162,
      "Ġmes": 5163,
      "FF": 5164,
      "iot": 5165,
      "éĢ": 5166,
      "Ġcloud": 5167,
      "ĠAssociation": 5168,
      "ĠMark": 5169,
      "ocket": 5170,
      "Ġsession": 5171,
      "IA": 5172,
      "zo": 5173,
      "ĠTwitter": 5174,
      "66": 5175,
      "px": 5176,
      "Ġopened": 5177,
      "Ġcovered": 5178,
      "Ġscore": 5179,
      "çľ": 5180,
      "Ġhomes": 5181,
      "Ġcreative": 5182,
      "ĠVol": 5183,
      "inos": 5184,
      "ĠCouncil": 5185,
      "ĠTexas": 5186,
      "ĠVe": 5187,
      "Ġbehavior": 5188,
      "aux": 5189,
      "abase": 5190,
      "Ġshape": 5191,
      "ĠHist": 5192,
      "len": 5193,
      "Ġbill": 5194,
      "Ġdaughter": 5195,
      "ĊĠĠĠĠĠĠĠĠĠ": 5196,
      "Ġclearly": 5197,
      "Ġinput": 5198,
      "iciency": 5199,
      "Ġnamed": 5200,
      "Ġefficient": 5201,
      "hal": 5202,
      "Ġfav": 5203,
      "itors": 5204,
      "41": 5205,
      "Ġgain": 5206,
      "cious": 5207,
      "Ġiniti": 5208,
      "Ġviews": 5209,
      "acks": 5210,
      "icians": 5211,
      "td": 5212,
      "Ġcentral": 5213,
      "oi": 5214,
      "ĠSing": 5215,
      "Ġabsolutely": 5216,
      "Ġcalls": 5217,
      "Ġpandemic": 5218,
      "Ġdirector": 5219,
      "Just": 5220,
      "Ġdecide": 5221,
      "ĠChurch": 5222,
      "aked": 5223,
      "Ġearth": 5224,
      "imb": 5225,
      "ĠScience": 5226,
      "Ġthus": 5227,
      "Ġrelevant": 5228,
      "Ġcaused": 5229,
      "Am": 5230,
      "comm": 5231,
      "Ed": 5232,
      "Ġshowed": 5233,
      "Ġcolors": 5234,
      "ĠFlor": 5235,
      "Ġmagn": 5236,
      "ervation": 5237,
      "standing": 5238,
      "Ġadapt": 5239,
      "Ġcapacity": 5240,
      "Ġrare": 5241,
      "ĠSocial": 5242,
      "su": 5243,
      "Ġforms": 5244,
      "Ġeconomy": 5245,
      "Ġtransform": 5246,
      "eld": 5247,
      "Ġsand": 5248,
      "Ġkid": 5249,
      "ĠCong": 5250,
      "Ġexercise": 5251,
      "mod": 5252,
      "85": 5253,
      "iem": 5254,
      "oyal": 5255,
      "Ġparam": 5256,
      "PA": 5257,
      "owe": 5258,
      "Ġotherwise": 5259,
      "Ġtopic": 5260,
      "known": 5261,
      "ÈĻ": 5262,
      "odd": 5263,
      "tenance": 5264,
      "Ġsont": 5265,
      "rowd": 5266,
      "Ġmotor": 5267,
      "æĬ": 5268,
      "ĠTHE": 5269,
      "Ġbiggest": 5270,
      "Ġbecomes": 5271,
      "Ġtemperature": 5272,
      "Ġquarter": 5273,
      "æĹ¶": 5274,
      "oster": 5275,
      "Ġmission": 5276,
      "Ġfabric": 5277,
      "Ġdecor": 5278,
      "CE": 5279,
      "Time": 5280,
      "Ġsmooth": 5281,
      "ĠBritish": 5282,
      "Ġreached": 5283,
      "Ġacad": 5284,
      "/><": 5285,
      "icing": 5286,
      "Ġsustain": 5287,
      "ãģ": 5288,
      "Ġcommunities": 5289,
      "Ġfill": 5290,
      "Ġfish": 5291,
      "II": 5292,
      "Ġanc": 5293,
      "aine": 5294,
      "åĳ": 5295,
      "lands": 5296,
      "door": 5297,
      "Ġflo": 5298,
      "ivo": 5299,
      "Ġnegative": 5300,
      "Ġsexual": 5301,
      "ructure": 5302,
      "ushed": 5303,
      "Ġcore": 5304,
      "Ġestablished": 5305,
      "Ġincor": 5306,
      "Ġmut": 5307,
      "Like": 5308,
      "æĥ": 5309,
      "Ġannual": 5310,
      "issions": 5311,
      "Ġpresence": 5312,
      "othes": 5313,
      "roud": 5314,
      "Ġinsp": 5315,
      "ctors": 5316,
      "Ġsugar": 5317,
      "Ġentertain": 5318,
      "unte": 5319,
      "ĠCustom": 5320,
      "Ġowner": 5321,
      "ĠChild": 5322,
      "kl": 5323,
      "Ġeth": 5324,
      "lear": 5325,
      "Ġcompleted": 5326,
      "uty": 5327,
      "Well": 5328,
      "Ġwilling": 5329,
      "Ġsurg": 5330,
      "Ġsources": 5331,
      "']": 5332,
      "èĥ": 5333,
      "abled": 5334,
      "Ġhelpful": 5335,
      "Par": 5336,
      "El": 5337,
      "Ġestim": 5338,
      "Ġalc": 5339,
      "((": 5340,
      "ĠRoad": 5341,
      "Ġoperations": 5342,
      "Ġbuying": 5343,
      "sey": 5344,
      "SA": 5345,
      "Ġentry": 5346,
      "Ġmajority": 5347,
      "ĠDirector": 5348,
      "Ġdoubt": 5349,
      "ĠPay": 5350,
      "itness": 5351,
      "oma": 5352,
      "Ġproperties": 5353,
      "ez": 5354,
      "ĠMo": 5355,
      "Ġvision": 5356,
      "OW": 5357,
      "avig": 5358,
      "omas": 5359,
      "Ġexpress": 5360,
      "ĠAlthough": 5361,
      "Ġadding": 5362,
      "Ġtraffic": 5363,
      "ĠSol": 5364,
      "azione": 5365,
      "alle": 5366,
      "43": 5367,
      "anda": 5368,
      "Ġnous": 5369,
      "what": 5370,
      "DF": 5371,
      "Ã§Ã£o": 5372,
      "Ġos": 5373,
      "Ġfunds": 5374,
      "Â®": 5375,
      "ima": 5376,
      "ĠFil": 5377,
      "clusive": 5378,
      "ĠJew": 5379,
      "Ġsud": 5380,
      "mente": 5381,
      "Ġcalcul": 5382,
      "Ġdescribed": 5383,
      "ĠApple": 5384,
      "LA": 5385,
      "\";": 5386,
      "194": 5387,
      "Ġvisual": 5388,
      "Ġprepared": 5389,
      "rian": 5390,
      "Ġleaving": 5391,
      "Ġformat": 5392,
      "vol": 5393,
      "Ġplaced": 5394,
      "ĠDevelopment": 5395,
      "Ġclasses": 5396,
      "ĠCamp": 5397,
      "Ġpassion": 5398,
      "Ġencourag": 5399,
      "Let": 5400,
      "rier": 5401,
      "abilities": 5402,
      "ĠAustralia": 5403,
      "ĠChar": 5404,
      "Ġdistance": 5405,
      "Ġadopt": 5406,
      "Ġamb": 5407,
      "pa": 5408,
      "ipes": 5409,
      "Ġserved": 5410,
      "Ġrecipe": 5411,
      "pass": 5412,
      "Ġment": 5413,
      ".'": 5414,
      "ĠWhe": 5415,
      "Ġreb": 5416,
      "Ġhyd": 5417,
      "ĠPress": 5418,
      "estival": 5419,
      "Ġmetal": 5420,
      "ĠEach": 5421,
      "Ġproduced": 5422,
      "Ġdra": 5423,
      "hab": 5424,
      "ĠBra": 5425,
      "Ġsea": 5426,
      "Ġforeign": 5427,
      "tered": 5428,
      "Ġbright": 5429,
      "Ġbonus": 5430,
      "Ġplenty": 5431,
      "Ġscene": 5432,
      "Ġcream": 5433,
      "edom": 5434,
      "Ġwedding": 5435,
      "ĠSun": 5436,
      "Ġtechnical": 5437,
      "Ġrelationships": 5438,
      "ji": 5439,
      "Ġjump": 5440,
      "state": 5441,
      "include": 5442,
      "Ġsty": 5443,
      "Ġring": 5444,
      "wer": 5445,
      "Ġtaste": 5446,
      "Object": 5447,
      "ĠEducation": 5448,
      "Ġpair": 5449,
      "Ġcop": 5450,
      "ĠProfess": 5451,
      "ĠRE": 5452,
      "Ġopinion": 5453,
      "ĠBack": 5454,
      "Ġrestrict": 5455,
      "Ġsport": 5456,
      "rate": 5457,
      "Ġdriver": 5458,
      "ĠEngine": 5459,
      "edy": 5460,
      "ĠFore": 5461,
      "ĠElect": 5462,
      "Ġdeveloping": 5463,
      "void": 5464,
      "Ġdisp": 5465,
      "Ġstandards": 5466,
      "Ġleader": 5467,
      "ĠSpe": 5468,
      "Ġmine": 5469,
      "gal": 5470,
      "Ġteaching": 5471,
      "77": 5472,
      "ulated": 5473,
      "Ġemp": 5474,
      "MP": 5475,
      "ungs": 5476,
      "Ġlabor": 5477,
      "Ġinspir": 5478,
      "urd": 5479,
      "Ġtotally": 5480,
      "Ġice": 5481,
      "ifications": 5482,
      "ums": 5483,
      "éĿ": 5484,
      "Ġparties": 5485,
      "ista": 5486,
      "Ġwelcome": 5487,
      "ĠClub": 5488,
      "Ġforg": 5489,
      "pected": 5490,
      "Ġfashion": 5491,
      "asp": 5492,
      "ĠMichael": 5493,
      "Per": 5494,
      "éĤ£": 5495,
      "æĶ": 5496,
      "ĠDi": 5497,
      "Ġtele": 5498,
      "56": 5499,
      "vin": 5500,
      "Ġconversation": 5501,
      "ĠInstitute": 5502,
      "ĠRober": 5503,
      "Ġlie": 5504,
      "ĠIsrael": 5505,
      "ĠChinese": 5506,
      "fast": 5507,
      "ĠZe": 5508,
      "ĠMad": 5509,
      "Ġrule": 5510,
      "urb": 5511,
      "idden": 5512,
      "Ġestate": 5513,
      "Ġfell": 5514,
      "Ġreference": 5515,
      "Hi": 5516,
      "Ġremains": 5517,
      "Ġheight": 5518,
      "Ġbecoming": 5519,
      "Ġoutput": 5520,
      "Ġmode": 5521,
      "Ġlaunch": 5522,
      "å°±": 5523,
      "antic": 5524,
      "Ã´": 5525,
      "Ġeste": 5526,
      "May": 5527,
      "ĠConst": 5528,
      "function": 5529,
      "ĠMary": 5530,
      "Ġraised": 5531,
      "Ġalg": 5532,
      "IF": 5533,
      "Ġexperts": 5534,
      "ĠEs": 5535,
      "pty": 5536,
      "Ġrom": 5537,
      "Ġsector": 5538,
      "Ġbien": 5539,
      "Are": 5540,
      "Ġlisten": 5541,
      "fit": 5542,
      "Ġretail": 5543,
      "ĠIS": 5544,
      "Ġpackage": 5545,
      "Comm": 5546,
      "BA": 5547,
      "Ġrank": 5548,
      "ensions": 5549,
      "ĠLou": 5550,
      "Ġexhib": 5551,
      "Ġsmaller": 5552,
      "Å¯": 5553,
      "post": 5554,
      "ĠFood": 5555,
      "ĠFre": 5556,
      "Ġidentify": 5557,
      "ulate": 5558,
      "rip": 5559,
      "Ġpractices": 5560,
      "Ġplants": 5561,
      "Phone": 5562,
      "Ġasking": 5563,
      "Ġstreet": 5564,
      "Ġexcited": 5565,
      "ĠQue": 5566,
      "unning": 5567,
      "Ġdiscussion": 5568,
      "Ġschedule": 5569,
      "Ġmail": 5570,
      "ishes": 5571,
      "xy": 5572,
      "iture": 5573,
      "ĠJer": 5574,
      "ĠStar": 5575,
      "apers": 5576,
      "fs": 5577,
      "Ġadvance": 5578,
      "ĠAlex": 5579,
      "Ġegg": 5580,
      "Ġawesome": 5581,
      "ĠFrance": 5582,
      "Ġdecre": 5583,
      "user": 5584,
      "Ġcheap": 5585,
      "Ġswitch": 5586,
      "59": 5587,
      "Ġscale": 5588,
      "oir": 5589,
      "ĠBre": 5590,
      "Ġartist": 5591,
      "Ġcitiz": 5592,
      "Ġnumerous": 5593,
      "Ġcentury": 5594,
      "Ġwinter": 5595,
      "Ġshowing": 5596,
      "appy": 5597,
      "ĠAnal": 5598,
      "ĠArch": 5599,
      "Ġjournal": 5600,
      "ader": 5601,
      "Ġspect": 5602,
      "Ġclaims": 5603,
      "ĠClick": 5604,
      "pace": 5605,
      "eder": 5606,
      "Ġban": 5607,
      "ĠLog": 5608,
      "Ġvoor": 5609,
      "aire": 5610,
      "vi": 5611,
      "osen": 5612,
      "ĠBuild": 5613,
      "Ġminute": 5614,
      "Ġcoverage": 5615,
      "Ġconnected": 5616,
      "ync": 5617,
      "Ġtight": 5618,
      "Ġassert": 5619,
      "ĠExt": 5620,
      "ete": 5621,
      "rc": 5622,
      "ĠUnder": 5623,
      "Ġauto": 5624,
      "Ġspring": 5625,
      "Ġdecisions": 5626,
      "Ġplug": 5627,
      "izz": 5628,
      "Ġfilter": 5629,
      "ulations": 5630,
      "Ġevening": 5631,
      "Ġanimals": 5632,
      "night": 5633,
      "Ġindex": 5634,
      "ĠFranc": 5635,
      "(),": 5636,
      "Ġposted": 5637,
      "çī": 5638,
      "ĠPerson": 5639,
      "izer": 5640,
      "yth": 5641,
      "Ġshopping": 5642,
      "Ġdespite": 5643,
      "Ġbeat": 5644,
      "semb": 5645,
      "Ġleaves": 5646,
      "Ġalternative": 5647,
      "Ġrapid": 5648,
      "çĿ": 5649,
      "Ġchanging": 5650,
      "Ġingredients": 5651,
      "Ġprocesses": 5652,
      "Ġpresented": 5653,
      "press": 5654,
      "ĠView": 5655,
      "Ġexplain": 5656,
      "Ġwine": 5657,
      "Ġapart": 5658,
      "Ġbought": 5659,
      "prise": 5660,
      "Ġseparate": 5661,
      "Ġmostly": 5662,
      "Ġstation": 5663,
      "ko": 5664,
      "ĠReal": 5665,
      "sub": 5666,
      "you": 5667,
      "ĠÃ¤": 5668,
      "ĻĤ": 5669,
      "Ġarticles": 5670,
      "Ġjoined": 5671,
      "ĠExper": 5672,
      "ĠID": 5673,
      "&&": 5674,
      "});": 5675,
      "Ġvote": 5676,
      "anted": 5677,
      "Ġexpensive": 5678,
      "ups": 5679,
      "ĠBay": 5680,
      "ĠSaf": 5681,
      "Ġpoly": 5682,
      "Ġselected": 5683,
      "._": 5684,
      "ston": 5685,
      "Ġmotiv": 5686,
      "Ġdyn": 5687,
      "Ġassum": 5688,
      "âĢ¦.": 5689,
      "ĠTheir": 5690,
      "ears": 5691,
      "æ°": 5692,
      "Ġneighbor": 5693,
      "hent": 5694,
      "ĠThursday": 5695,
      "Ġslot": 5696,
      "Ġfunctions": 5697,
      "respond": 5698,
      "Ġsymptoms": 5699,
      "ye": 5700,
      "Ġeating": 5701,
      "ĠOrgan": 5702,
      "Ġcivil": 5703,
      "Ġmanager": 5704,
      "outs": 5705,
      "Ã©d": 5706,
      "Ġapprox": 5707,
      "TS": 5708,
      "Ġvirtual": 5709,
      "coin": 5710,
      "reek": 5711,
      "Ġexplore": 5712,
      "Ġtalent": 5713,
      "iche": 5714,
      "Ġexception": 5715,
      "iden": 5716,
      "level": 5717,
      "anz": 5718,
      "irgin": 5719,
      "Ġprotected": 5720,
      "ĠBlue": 5721,
      "Ġputting": 5722,
      "Ġpou": 5723,
      "Ġfold": 5724,
      "Ġslightly": 5725,
      "iser": 5726,
      "Ġfocused": 5727,
      "Ġsudden": 5728,
      "Ġsusp": 5729,
      "åŃĲ": 5730,
      "File": 5731,
      "ti": 5732,
      "Ġnos": 5733,
      "Ġtypically": 5734,
      "onds": 5735,
      "ĠTom": 5736,
      "Ġven": 5737,
      "Ġended": 5738,
      "Ref": 5739,
      "Ġlisted": 5740,
      "Ġappears": 5741,
      "Ġmanaged": 5742,
      "Ġadvanced": 5743,
      "Ġshut": 5744,
      "eller": 5745,
      "ador": 5746,
      "ĠCard": 5747,
      "ali": 5748,
      "Ġchair": 5749,
      "Ġdetect": 5750,
      "Ġmarkets": 5751,
      "hi": 5752,
      "Ġedge": 5753,
      "ponse": 5754,
      "Ġspending": 5755,
      "omet": 5756,
      "Ġunless": 5757,
      "Ġcontinues": 5758,
      "Ġdocuments": 5759,
      "sem": 5760,
      "ĠHave": 5761,
      "Ġsau": 5762,
      "})": 5763,
      "Ġaccident": 5764,
      "pret": 5765,
      "Ġstarts": 5766,
      "OD": 5767,
      "58": 5768,
      "Ġrecords": 5769,
      "Ġfurn": 5770,
      "ns": 5771,
      "Ġcrowd": 5772,
      "åĩº": 5773,
      "ĠRef": 5774,
      "Co": 5775,
      "Ġcompre": 5776,
      "Ġcombination": 5777,
      "ĠDig": 5778,
      "code": 5779,
      "Ġthousands": 5780,
      "Ġfilled": 5781,
      "weet": 5782,
      "wa": 5783,
      "ĠTuesday": 5784,
      "ĠHand": 5785,
      "host": 5786,
      "win": 5787,
      "Ġinternal": 5788,
      "Ġmeasures": 5789,
      "Ġsequ": 5790,
      "icit": 5791,
      "ifts": 5792,
      "Ġprofile": 5793,
      "Ġalle": 5794,
      "Ġtechniques": 5795,
      "going": 5796,
      "ĠEnt": 5797,
      "ĠAfrica": 5798,
      "yer": 5799,
      "However": 5800,
      "Error": 5801,
      "Ġsets": 5802,
      "OM": 5803,
      "Ġagreement": 5804,
      "Ġcorner": 5805,
      "Ġcircum": 5806,
      "éĺ": 5807,
      "Ġfemale": 5808,
      "Ġherself": 5809,
      "Ġquiet": 5810,
      "Ġflat": 5811,
      "Ġfeels": 5812,
      "Ġthr": 5813,
      "Ġoperation": 5814,
      "Ġwebsites": 5815,
      "ĠColor": 5816,
      "eles": 5817,
      "otal": 5818,
      "Rep": 5819,
      "ĠLong": 5820,
      "ĠCBD": 5821,
      "while": 5822,
      "Ġseconds": 5823,
      "Ã¶n": 5824,
      "oria": 5825,
      "craft": 5826,
      "Ġwaste": 5827,
      "Ġintellig": 5828,
      "Ġglad": 5829,
      "ĠMex": 5830,
      "57": 5831,
      "ĠSa": 5832,
      "which": 5833,
      "Ġwalking": 5834,
      "Ġcraft": 5835,
      "umin": 5836,
      "ĠFlorida": 5837,
      "Ġmarriage": 5838,
      "dis": 5839,
      "å¦": 5840,
      "Ġbeauty": 5841,
      "onde": 5842,
      "uries": 5843,
      "Ġclimate": 5844,
      "Ã¡n": 5845,
      "Ã©c": 5846,
      "Ġpoll": 5847,
      "ĠFire": 5848,
      "Ġbrief": 5849,
      "Ġsnow": 5850,
      "Ġtransm": 5851,
      "Ġwerden": 5852,
      "Ġrealize": 5853,
      "Text": 5854,
      "obe": 5855,
      "ĠWho": 5856,
      "!âĢĿ": 5857,
      "case": 5858,
      "Ġconstruct": 5859,
      "Ġneck": 5860,
      "ogen": 5861,
      "Ġmenu": 5862,
      "ĠMer": 5863,
      "Ġfactor": 5864,
      "Ġminimum": 5865,
      "ende": 5866,
      "Ġcompetition": 5867,
      "Ġfamous": 5868,
      "ript": 5869,
      "Ġpossibly": 5870,
      "inar": 5871,
      "Ġholding": 5872,
      "Ġsupposed": 5873,
      "Ġveget": 5874,
      "Ġanx": 5875,
      "Ġproud": 5876,
      "gage": 5877,
      "ĠTwo": 5878,
      "Ġarchitect": 5879,
      "Ġtill": 5880,
      "Aut": 5881,
      "Ġsac": 5882,
      "';": 5883,
      "Ġfamiliar": 5884,
      "ĠWednesday": 5885,
      "itle": 5886,
      "Ġreturned": 5887,
      "ĠTeam": 5888,
      "Ġcars": 5889,
      "ĠLight": 5890,
      "ĠStand": 5891,
      "Ġbreath": 5892,
      "Ġmedium": 5893,
      "ĠIP": 5894,
      "Ġruns": 5895,
      "Ġsind": 5896,
      "Ġthick": 5897,
      "Out": 5898,
      "Ġmaximum": 5899,
      "oul": 5900,
      "Us": 5901,
      "eler": 5902,
      "Ġpreviously": 5903,
      "Ġprin": 5904,
      "agen": 5905,
      "odies": 5906,
      "Ġindependent": 5907,
      "Ġoder": 5908,
      "250": 5909,
      "ĠGrand": 5910,
      "TE": 5911,
      "rivate": 5912,
      "ĠCommunity": 5913,
      "elines": 5914,
      "Ġrac": 5915,
      "mar": 5916,
      "ev": 5917,
      "Ġtests": 5918,
      "Ġgarden": 5919,
      "ocolate": 5920,
      "ĠTor": 5921,
      "ĠMaybe": 5922,
      "Ġrise": 5923,
      "Ġpredict": 5924,
      "Ġtrial": 5925,
      "åĲİ": 5926,
      "Ġarms": 5927,
      "edia": 5928,
      "Ġprofessionals": 5929,
      "ĠCD": 5930,
      "bal": 5931,
      "ijn": 5932,
      "Ġrandom": 5933,
      "å±": 5934,
      "ĠCommission": 5935,
      "Ġleads": 5936,
      "ami": 5937,
      "Ġship": 5938,
      "Ġfo": 5939,
      "Ġtempl": 5940,
      "elled": 5941,
      "Ġlabel": 5942,
      "Ġinfluence": 5943,
      "Ġsitting": 5944,
      "ĠðŁĻĤ": 5945,
      "Ġnovel": 5946,
      "Ġdinner": 5947,
      "Ġnotes": 5948,
      "Ġfort": 5949,
      "estic": 5950,
      "rid": 5951,
      "iest": 5952,
      "Exception": 5953,
      "Ġstopped": 5954,
      "ĠSy": 5955,
      "Ġoperating": 5956,
      "Ġpure": 5957,
      "Ġsymbol": 5958,
      "120": 5959,
      "ĠDemocr": 5960,
      "Ġdivers": 5961,
      "());": 5962,
      "ossible": 5963,
      "orter": 5964,
      "ĠMicrosoft": 5965,
      "Ġpolicies": 5966,
      "Ġinjury": 5967,
      "ĠGen": 5968,
      "idential": 5969,
      "ĠTH": 5970,
      "è¯´": 5971,
      "ĠMat": 5972,
      "ĠEnd": 5973,
      "ĠTO": 5974,
      "Ġans": 5975,
      "Ġconference": 5976,
      "rooms": 5977,
      "arp": 5978,
      "Ġdedicated": 5979,
      "Ġsalt": 5980,
      "Ġtip": 5981,
      "Comp": 5982,
      "Ã©r": 5983,
      "Test": 5984,
      "Ġanimal": 5985,
      "ĊĉĠ": 5986,
      "¦ģ": 5987,
      "oken": 5988,
      "Ġapplied": 5989,
      "Ġmissing": 5990,
      "Ġvolume": 5991,
      "Ġcaught": 5992,
      "rete": 5993,
      "Ġelim": 5994,
      "Ġmig": 5995,
      "Ġkill": 5996,
      "Ġsmile": 5997,
      "una": 5998,
      "Ġleadership": 5999,
      "Ġstrategies": 6000,
      "bd": 6001,
      "Ġbird": 6002,
      "Ġexchange": 6003,
      "Ġrot": 6004,
      "rees": 6005,
      "fficient": 6006,
      "Ġadvent": 6007,
      "Ġproperly": 6008,
      "rum": 6009,
      "Ġrecommended": 6010,
      "rix": 6011,
      "Ġrestaurant": 6012,
      "ira": 6013,
      "Ġeventually": 6014,
      "otes": 6015,
      "Ġperformed": 6016,
      "that": 6017,
      "lock": 6018,
      "ĠLo": 6019,
      "Ġbound": 6020,
      "erg": 6021,
      "ĠStart": 6022,
      "ambling": 6023,
      "grad": 6024,
      "Ġsettings": 6025,
      "Ġremind": 6026,
      "ĠNon": 6027,
      "TH": 6028,
      "Ġrub": 6029,
      "Ġtherapy": 6030,
      "Ġvictim": 6031,
      "Pre": 6032,
      "ĠSecurity": 6033,
      "Ġboost": 6034,
      "ĠMount": 6035,
      "='": 6036,
      "Ġconcerns": 6037,
      "Ġsteel": 6038,
      "orney": 6039,
      "cho": 6040,
      "Ġsad": 6041,
      "];": 6042,
      "Ġenjoyed": 6043,
      "Ġnor": 6044,
      "ĠLand": 6045,
      "ohol": 6046,
      "anges": 6047,
      "istan": 6048,
      "Ġraise": 6049,
      "uled": 6050,
      "iano": 6051,
      "Ġride": 6052,
      "Ġbrings": 6053,
      "ĠIts": 6054,
      "Ġgeneration": 6055,
      "essions": 6056,
      "rical": 6057,
      "Ġliqu": 6058,
      "Ġstret": 6059,
      "Ġclassic": 6060,
      "':": 6061,
      "math": 6062,
      "Ġinfect": 6063,
      "ĠRock": 6064,
      "Ġaux": 6065,
      "Every": 6066,
      "Ġselling": 6067,
      "Ġworse": 6068,
      "ĠUN": 6069,
      "icial": 6070,
      "Ġcleaning": 6071,
      "ĠMedia": 6072,
      "Ġinstr": 6073,
      "ĠRiver": 6074,
      "ĠWood": 6075,
      "ĠWhere": 6076,
      "Ġclinical": 6077,
      "Ġprotein": 6078,
      "onom": 6079,
      "Ġdesire": 6080,
      "Ġlegisl": 6081,
      "Ġtheme": 6082,
      "Ġchamp": 6083,
      "ĠWomen": 6084,
      "ĠLat": 6085,
      "anged": 6086,
      "æĦ": 6087,
      "Ġwhom": 6088,
      "Ġrepair": 6089,
      "icago": 6090,
      "Ġsched": 6091,
      "Ġteacher": 6092,
      "Ġaccompl": 6093,
      "Ġdiscount": 6094,
      "Ġlaun": 6095,
      "Ġfunding": 6096,
      "Fl": 6097,
      "ĠTur": 6098,
      "ĠOnly": 6099,
      "Ġexperiment": 6100,
      "SC": 6101,
      "outhern": 6102,
      "éĻ": 6103,
      "Ġfaster": 6104,
      "Ġplastic": 6105,
      "Ġseat": 6106,
      "Ġimportance": 6107,
      "rome": 6108,
      "Ġkilled": 6109,
      "Ġupdated": 6110,
      "amos": 6111,
      "Ġexpression": 6112,
      "Ġrooms": 6113,
      "Ġspecies": 6114,
      "Ġmas": 6115,
      "ĠÃ®n": 6116,
      "Ġprocessing": 6117,
      "ĠEngland": 6118,
      "Ġkick": 6119,
      "Ġcomponents": 6120,
      "isk": 6121,
      "aks": 6122,
      "èĢĮ": 6123,
      "Ġknowing": 6124,
      "gers": 6125,
      "Ġsie": 6126,
      "Ġresidents": 6127,
      "193": 6128,
      "uable": 6129,
      "Ġfootball": 6130,
      "Ġorg": 6131,
      "Ġrain": 6132,
      "Ġsan": 6133,
      "68": 6134,
      "azine": 6135,
      "ws": 6136,
      "Ġconflic": 6137,
      "ĠTake": 6138,
      "Ġallowing": 6139,
      "UL": 6140,
      "Ġmaintenance": 6141,
      "oga": 6142,
      "Ġmarried": 6143,
      "related": 6144,
      "Ġimagine": 6145,
      "{\\": 6146,
      "ĠRad": 6147,
      "rig": 6148,
      "Ġcoord": 6149,
      "ĠReport": 6150,
      "State": 6151,
      "ĠAdv": 6152,
      "Ġaccounts": 6153,
      "ĠBi": 6154,
      "ĠSpecial": 6155,
      "Ġcrim": 6156,
      "sm": 6157,
      "ĠJournal": 6158,
      "First": 6159,
      "Ġapps": 6160,
      "ä¸ĭ": 6161,
      "ĠMont": 6162,
      "Ġassistance": 6163,
      "grade": 6164,
      "ĠBas": 6165,
      "Ġfee": 6166,
      "Ġminor": 6167,
      "Ġjoint": 6168,
      "Ġweap": 6169,
      "Ġodd": 6170,
      "ĠProt": 6171,
      "Ġpanel": 6172,
      "etime": 6173,
      "Form": 6174,
      "âĤ¬": 6175,
      "Ġdepartment": 6176,
      "life": 6177,
      "Ġseek": 6178,
      "ĠMot": 6179,
      "æĭ": 6180,
      "800": 6181,
      "192": 6182,
      "Ġmac": 6183,
      "Ġvit": 6184,
      "cm": 6185,
      "69": 6186,
      "--------------------------------": 6187,
      "Ġpregn": 6188,
      "Ġguard": 6189,
      "idth": 6190,
      "Ã¤t": 6191,
      "Ġdrugs": 6192,
      "aron": 6193,
      "ĠMil": 6194,
      "ĠMen": 6195,
      "ĠCall": 6196,
      "weight": 6197,
      "Ġourselves": 6198,
      "ĠToday": 6199,
      "Ġfacilities": 6200,
      "Ġbattle": 6201,
      "Ġagency": 6202,
      "Ġteach": 6203,
      "Ġdogs": 6204,
      "è¦ģ": 6205,
      "Ġich": 6206,
      "Ðµ": 6207,
      "Ġcalling": 6208,
      "Ġdepending": 6209,
      "ĠAcad": 6210,
      "Ã©m": 6211,
      "Ġscript": 6212,
      "fil": 6213,
      "ĠLes": 6214,
      "ĠLake": 6215,
      "ĠBill": 6216,
      "Ġsister": 6217,
      "ship": 6218,
      "hop": 6219,
      "ĠSmith": 6220,
      "ĠProv": 6221,
      "ĠFamily": 6222,
      "Ġspecifically": 6223,
      "Ġroot": 6224,
      "Also": 6225,
      "cos": 6226,
      "ĠJul": 6227,
      "Ġshel": 6228,
      "under": 6229,
      "anie": 6230,
      "Ġholiday": 6231,
      "then": 6232,
      "eta": 6233,
      "Ġdebt": 6234,
      "Ġremoved": 6235,
      "ML": 6236,
      "Ġunivers": 6237,
      "kin": 6238,
      "hetic": 6239,
      "ulous": 6240,
      "Ġteachers": 6241,
      "ĠFull": 6242,
      "ĠShow": 6243,
      "umer": 6244,
      "Ġtrees": 6245,
      "Ġsupported": 6246,
      "ĠGeorge": 6247,
      "Ġappeared": 6248,
      "Ġanywhere": 6249,
      "merce": 6250,
      "isher": 6251,
      "ĠIsland": 6252,
      "ĠCentral": 6253,
      "ĠLos": 6254,
      "Ġcauses": 6255,
      "ĠMatt": 6256,
      "ĠNov": 6257,
      "åĮ": 6258,
      "Ġsenior": 6259,
      "Ġstores": 6260,
      "apping": 6261,
      "ĠMass": 6262,
      "ride": 6263,
      "itz": 6264,
      "52": 6265,
      "inte": 6266,
      "Ġdial": 6267,
      "Ġstanding": 6268,
      "stract": 6269,
      "Ġphil": 6270,
      "Ġtheory": 6271,
      "Ġgi": 6272,
      "Part": 6273,
      "Ġsigns": 6274,
      "ĠMax": 6275,
      "ĠType": 6276,
      "ĠAndroid": 6277,
      "ommod": 6278,
      "Ð°": 6279,
      "ĠFoundation": 6280,
      "ĠCarol": 6281,
      "Ġlived": 6282,
      "inating": 6283,
      "Ġchain": 6284,
      "Ġdeposit": 6285,
      "ĠGovernment": 6286,
      "iÃ¨re": 6287,
      "Ġshift": 6288,
      "water": 6289,
      "iveness": 6290,
      "Last": 6291,
      "Ġdefined": 6292,
      "Ġstated": 6293,
      "itionally": 6294,
      "Ġcrypt": 6295,
      "Ġchoices": 6296,
      "RI": 6297,
      "ni": 6298,
      "ĠDu": 6299,
      "sl": 6300,
      "ĠBrown": 6301,
      "Ġsignificantly": 6302,
      "ĠDisc": 6303,
      "'.": 6304,
      "Ġweak": 6305,
      "Ġmovies": 6306,
      "Ġhearing": 6307,
      "Ġbattery": 6308,
      "cht": 6309,
      "Ġwir": 6310,
      "Ġchemical": 6311,
      "Ġstone": 6312,
      "ĠDE": 6313,
      "uz": 6314,
      "GB": 6315,
      "ĠMusic": 6316,
      "PC": 6317,
      "Sub": 6318,
      "Ġjoy": 6319,
      "Ġfailed": 6320,
      "Ġoccup": 6321,
      "Ġsimpl": 6322,
      "Ġessay": 6323,
      "Ġconsequ": 6324,
      "ĊĊĠĠĠĠĠĠĠĠ": 6325,
      "owa": 6326,
      "ords": 6327,
      "Ġran": 6328,
      "eper": 6329,
      "ĠMach": 6330,
      "ĊĠĠĠĠĠĠĠĠĠĠĠĠĠĠĠĠĠĠĠĠĠĠĠĠĠĠĠĠĠĠĠĠ": 6331,
      "Ġhell": 6332,
      "cia": 6333,
      "Ġcorrespond": 6334,
      "Ġfees": 6335,
      "Ġwinning": 6336,
      "Ġmachines": 6337,
      "Ġfields": 6338,
      "ĠOper": 6339,
      "Ġprincip": 6340,
      "can": 6341,
      "Ġnone": 6342,
      "Ġroof": 6343,
      "uality": 6344,
      "Ġinn": 6345,
      "Ġlovely": 6346,
      "Ġfle": 6347,
      "Ġenvironmental": 6348,
      "ĠTim": 6349,
      "Ġfriendly": 6350,
      "ĠGame": 6351,
      "ĠInstagram": 6352,
      "Ġspr": 6353,
      "Ġadministration": 6354,
      "ĠHill": 6355,
      "Fe": 6356,
      "trans": 6357,
      "TIT": 6358,
      "Ġappreciate": 6359,
      "Ġexciting": 6360,
      "ĠDen": 6361,
      "Ġsevere": 6362,
      "æŀ": 6363,
      "Ġlaugh": 6364,
      "Ġarray": 6365,
      "Ġcrisis": 6366,
      "ĠKeep": 6367,
      "Ġlibrary": 6368,
      "Ġbutter": 6369,
      "fin": 6370,
      "Ġaspects": 6371,
      "Ġcourses": 6372,
      "67": 6373,
      "rics": 6374,
      "Ġfixed": 6375,
      "Ġbei": 6376,
      "Ġradio": 6377,
      "Ent": 6378,
      "FA": 6379,
      "Ġvolunte": 6380,
      "Ġparticipants": 6381,
      "Ġtrav": 6382,
      "Ġtrading": 6383,
      "ĠEner": 6384,
      "See": 6385,
      "Ġinvent": 6386,
      "ĠDiv": 6387,
      "atal": 6388,
      "Ġforces": 6389,
      "olve": 6390,
      "ĠTechnology": 6391,
      "inations": 6392,
      "Ġpaying": 6393,
      "Ġgod": 6394,
      "rency": 6395,
      "Info": 6396,
      "ĠAbout": 6397,
      "Ġunits": 6398,
      "ku": 6399,
      "Ġanaly": 6400,
      "Ġcm": 6401,
      "Ġthread": 6402,
      "ema": 6403,
      "nic": 6404,
      "Ġze": 6405,
      "Ġresource": 6406,
      "ÅĦ": 6407,
      "Log": 6408,
      "Ġguests": 6409,
      "Ġcities": 6410,
      "Ġprovider": 6411,
      "Ġkinds": 6412,
      "ĠMedical": 6413,
      "Ġsurvey": 6414,
      "js": 6415,
      "abet": 6416,
      "Ġresponsibility": 6417,
      "LC": 6418,
      "ĠCA": 6419,
      "Any": 6420,
      "Ġbusy": 6421,
      "Ġscr": 6422,
      "rm": 6423,
      "Ġcircumst": 6424,
      "ĠFrank": 6425,
      "Ġfantastic": 6426,
      "isco": 6427,
      "Ġfeedback": 6428,
      "Ġvirus": 6429,
      "çĿĢ": 6430,
      "stream": 6431,
      "Ġexamples": 6432,
      "Ġimpress": 6433,
      "Ġacid": 6434,
      "irty": 6435,
      "VE": 6436,
      "ells": 6437,
      "ĠGerman": 6438,
      "Ġcloser": 6439,
      "parent": 6440,
      "Ġoblig": 6441,
      "Ġdollars": 6442,
      "Ġchannel": 6443,
      "Ġbroken": 6444,
      "Ġbelong": 6445,
      "Ġfuel": 6446,
      "Ġtelling": 6447,
      "pload": 6448,
      "Ġbeach": 6449,
      "ĠSand": 6450,
      "ifier": 6451,
      "Ġsuit": 6452,
      "ĠMel": 6453,
      "Ġcultural": 6454,
      "Ġcolumn": 6455,
      "Ġmanner": 6456,
      "Ġperspective": 6457,
      "long": 6458,
      "redit": 6459,
      "wing": 6460,
      "è´": 6461,
      "isa": 6462,
      "ocument": 6463,
      "Ġsoul": 6464,
      "ĠNOT": 6465,
      "alled": 6466,
      "Ġot": 6467,
      "ĠId": 6468,
      "reens": 6469,
      "èĩª": 6470,
      "ĠâĤ¬": 6471,
      "ĠDou": 6472,
      "çº": 6473,
      "191": 6474,
      "Ġvor": 6475,
      "ooks": 6476,
      "Ġlocations": 6477,
      "esterday": 6478,
      "ĠIndust": 6479,
      "ĠAccording": 6480,
      "éĩĮ": 6481,
      "Ġcir": 6482,
      "jo": 6483,
      "Ġlui": 6484,
      "Ġdescription": 6485,
      "ĠRest": 6486,
      "Ġapparent": 6487,
      "åı¯": 6488,
      "ĠMain": 6489,
      "ĠEarth": 6490,
      "lication": 6491,
      "bb": 6492,
      "Pe": 6493,
      "Ġargument": 6494,
      "uster": 6495,
      "ĠTer": 6496,
      "Ġpulled": 6497,
      "erent": 6498,
      "map": 6499,
      "âĦ": 6500,
      "Class": 6501,
      "Ġgather": 6502,
      "Ġwie": 6503,
      "ĠHa": 6504,
      "Ġpromote": 6505,
      "TA": 6506,
      "Ġses": 6507,
      "ĠGermany": 6508,
      "Mod": 6509,
      "Ġtrouble": 6510,
      "Ġreduced": 6511,
      "Ġemergency": 6512,
      "iti": 6513,
      "Rel": 6514,
      "VER": 6515,
      "ĠPlus": 6516,
      "Ġartists": 6517,
      "ĠInvest": 6518,
      "Ġprepare": 6519,
      "Ġsouth": 6520,
      "iene": 6521,
      "Ġsolo": 6522,
      ":=": 6523,
      "Ġdiscovered": 6524,
      "olars": 6525,
      "arrow": 6526,
      "())": 6527,
      "Def": 6528,
      "ioni": 6529,
      "ptions": 6530,
      "ques": 6531,
      "yan": 6532,
      "ĠCEO": 6533,
      "Ġspeaking": 6534,
      "éģĵ": 6535,
      "iten": 6536,
      "Ġbrown": 6537,
      "Ġwindows": 6538,
      "TITLE": 6539,
      "Ġregister": 6540,
      "Ġconsidering": 6541,
      "PE": 6542,
      "About": 6543,
      "Ġwriter": 6544,
      "PR": 6545,
      "Ġcorporate": 6546,
      "phas": 6547,
      "Ġpurpos": 6548,
      "600": 6549,
      "bsite": 6550,
      "eria": 6551,
      "Ġhyp": 6552,
      "Ġagent": 6553,
      "Ġfailure": 6554,
      "oses": 6555,
      "Ġmere": 6556,
      "Ġmilk": 6557,
      "ĠSign": 6558,
      "51": 6559,
      "Â°": 6560,
      "Ġpued": 6561,
      "Ġhate": 6562,
      "ĠDownload": 6563,
      "Ġperman": 6564,
      "ibilities": 6565,
      "ĠWeek": 6566,
      "draw": 6567,
      "Ġfruit": 6568,
      "uls": 6569,
      "ĠLast": 6570,
      "onym": 6571,
      "rible": 6572,
      "ĠMaster": 6573,
      "Ġpump": 6574,
      "Ġfing": 6575,
      "Ġconfidence": 6576,
      "ĠNY": 6577,
      "ĠSon": 6578,
      "iana": 6579,
      "æ¯": 6580,
      "ĠPet": 6581,
      "Ġadults": 6582,
      "////////": 6583,
      "Ġforced": 6584,
      "Ġmeat": 6585,
      "Ġyouth": 6586,
      "Ġtab": 6587,
      "Ġcomme": 6588,
      "Ġwire": 6589,
      "ĠOld": 6590,
      "Config": 6591,
      "Ġcommitted": 6592,
      "||": 6593,
      "cal": 6594,
      "ivered": 6595,
      "Ġenable": 6596,
      "acle": 6597,
      "Ġbigger": 6598,
      "ĠDuring": 6599,
      "Ġtables": 6600,
      "abe": 6601,
      "ket": 6602,
      "Ġmarg": 6603,
      "Ġsigned": 6604,
      "Ġwearing": 6605,
      "ĠEnter": 6606,
      "cean": 6607,
      "ĠBeach": 6608,
      "encia": 6609,
      "ycl": 6610,
      "Ġalleg": 6611,
      "Ġfro": 6612,
      "Ġsample": 6613,
      "OC": 6614,
      "Ġdistribution": 6615,
      "Ġupdates": 6616,
      "Ġwy": 6617,
      "Ġconfirm": 6618,
      "Source": 6619,
      "Ġsole": 6620,
      "page": 6621,
      "TC": 6622,
      "Ġpray": 6623,
      "ĠSupport": 6624,
      "Ġdelicious": 6625,
      "Ġdetailed": 6626,
      "comes": 6627,
      "ĠCommittee": 6628,
      "Ãªme": 6629,
      "äºİ": 6630,
      "Ġstars": 6631,
      "ĠPack": 6632,
      "rec": 6633,
      "FL": 6634,
      "hensive": 6635,
      "Ġdetermined": 6636,
      ":\"": 6637,
      "Ġli": 6638,
      "Ġshock": 6639,
      "Ġsongs": 6640,
      "ĠEqu": 6641,
      "rav": 6642,
      "ĠBuy": 6643,
      "åī": 6644,
      "imm": 6645,
      "onna": 6646,
      "antee": 6647,
      "ults": 6648,
      "Ġci": 6649,
      "oration": 6650,
      "Ġtechnologies": 6651,
      "Ġped": 6652,
      "ĠRussia": 6653,
      "Ġtag": 6654,
      "uis": 6655,
      "ĠControl": 6656,
      "Ġiron": 6657,
      "Ġemployee": 6658,
      "ĠOffic": 6659,
      "agon": 6660,
      "encing": 6661,
      "zt": 6662,
      "gent": 6663,
      "Ġtun": 6664,
      "Ġproviders": 6665,
      "adian": 6666,
      "ĠAmericans": 6667,
      "Ġappearance": 6668,
      "ĠFind": 6669,
      "Ser": 6670,
      "ĠParis": 6671,
      "Trans": 6672,
      "link": 6673,
      "Ġnoted": 6674,
      "Ġelection": 6675,
      "ĠUk": 6676,
      "ĠFund": 6677,
      "ĠSoft": 6678,
      "Ġautomatically": 6679,
      "Ġorders": 6680,
      "Ġhurt": 6681,
      "Ġaid": 6682,
      "ĠTimes": 6683,
      "burg": 6684,
      "ĠChicago": 6685,
      "Ġequal": 6686,
      "Ġtor": 6687,
      "Ġbless": 6688,
      "ĠHead": 6689,
      "last": 6690,
      "Ġshipping": 6691,
      "ĠAccess": 6692,
      "Ġking": 6693,
      "Ġbringing": 6694,
      "person": 6695,
      "Ġtea": 6696,
      "ummies": 6697,
      "54": 6698,
      "Ġepisode": 6699,
      "Press": 6700,
      "Ġble": 6701,
      "ipl": 6702,
      "DS": 6703,
      "Ġsurgery": 6704,
      "Ġloans": 6705,
      "Ġrecovery": 6706,
      "ĠConnect": 6707,
      "Ġlux": 6708,
      "ĠHam": 6709,
      "Event": 6710,
      "Ġwalked": 6711,
      "uh": 6712,
      "Em": 6713,
      "ĠDistrict": 6714,
      "ician": 6715,
      "Ġtough": 6716,
      "!)": 6717,
      "Ġbrands": 6718,
      "âĦ¢": 6719,
      "Size": 6720,
      "bert": 6721,
      "Ġrend": 6722,
      "Ġintroduced": 6723,
      "ĠRussian": 6724,
      "Ġcombined": 6725,
      "scape": 6726,
      "Ġcoach": 6727,
      "Ġcarried": 6728,
      "Ġdatabase": 6729,
      "ĠpiÃ": 6730,
      "Ġdiss": 6731,
      "Ġofficials": 6732,
      "irmed": 6733,
      "comp": 6734,
      "ogue": 6735,
      "ĠGlobal": 6736,
      "Ġvisitors": 6737,
      "Ġmessages": 6738,
      "Service": 6739,
      "Ġreligious": 6740,
      "ÅĽci": 6741,
      "Ġsuitable": 6742,
      "Ġinterface": 6743,
      "Ġtrig": 6744,
      "Item": 6745,
      "98": 6746,
      "UE": 6747,
      "imo": 6748,
      "Ġinterests": 6749,
      "ische": 6750,
      "ensity": 6751,
      "Ġserving": 6752,
      "aped": 6753,
      "Ġgest": 6754,
      "Then": 6755,
      "Ġwal": 6756,
      "Ġmur": 6757,
      "orthern": 6758,
      "Ġcycle": 6759,
      "Ġho": 6760,
      "Ġfreedom": 6761,
      "owing": 6762,
      "Ġplays": 6763,
      "dy": 6764,
      "53": 6765,
      "Ġfif": 6766,
      "~~": 6767,
      "è¿ĩ": 6768,
      "Ġresearc": 6769,
      "Ġreaders": 6770,
      "Ġperfectly": 6771,
      "iento": 6772,
      "Ġentirely": 6773,
      "Ġfollows": 6774,
      "Ġnorth": 6775,
      "ĠDev": 6776,
      "amento": 6777,
      "Ġsides": 6778,
      "ĠAud": 6779,
      "Ġjack": 6780,
      "Ġdefense": 6781,
      "ĠNetwork": 6782,
      "Ġsquare": 6783,
      "Ġtasks": 6784,
      "ĠPhot": 6785,
      "Ġnur": 6786,
      "osa": 6787,
      "Act": 6788,
      "Ġviolence": 6789,
      "Ġrevenue": 6790,
      "ĠPolicy": 6791,
      "usher": 6792,
      "Ġconcerned": 6793,
      "ĠOF": 6794,
      "Ġstre": 6795,
      "ĠPan": 6796,
      "ĠBur": 6797,
      "ĠfÃ¶r": 6798,
      "Ġarrest": 6799,
      "Ġinfrast": 6800,
      "ĠWil": 6801,
      "ischen": 6802,
      "Path": 6803,
      "Ġtail": 6804,
      "Ġcere": 6805,
      "Ġauth": 6806,
      "struct": 6807,
      "Ġast": 6808,
      "ĠManager": 6809,
      "Ġcitizens": 6810,
      "lam": 6811,
      "ĠVirgin": 6812,
      "Ġemotional": 6813,
      "ĠDoes": 6814,
      "ĠObama": 6815,
      "Ġencourage": 6816,
      "Sec": 6817,
      "Ġcategory": 6818,
      "æİ": 6819,
      "osoph": 6820,
      "Another": 6821,
      "secut": 6822,
      "ĠHuman": 6823,
      "ĠUnion": 6824,
      "bi": 6825,
      "Ã¨re": 6826,
      "Ġaffected": 6827,
      "top": 6828,
      "Ġnach": 6829,
      "Ġfacility": 6830,
      "Ġsurprise": 6831,
      "ä¿": 6832,
      "Ġentr": 6833,
      "prene": 6834,
      "Ġassets": 6835,
      "Ġacademic": 6836,
      "ingly": 6837,
      "Ġstood": 6838,
      "Ġgreatest": 6839,
      "oz": 6840,
      "Ġpills": 6841,
      "Ġconsumers": 6842,
      "ULL": 6843,
      "Where": 6844,
      "osite": 6845,
      "ori": 6846,
      "Ġdecades": 6847,
      "Ġseeking": 6848,
      "noon": 6849,
      "Ġvary": 6850,
      "Ġeffectively": 6851,
      "Ġfavour": 6852,
      "arts": 6853,
      "Ġpharm": 6854,
      "ĠCongress": 6855,
      "Ġsick": 6856,
      "ersion": 6857,
      "Ġhappening": 6858,
      "ĠMult": 6859,
      "ĠpÅĻ": 6860,
      "Ġoccasion": 6861,
      "Ġeditor": 6862,
      "Ġlicense": 6863,
      "Ġanswers": 6864,
      "ĠParty": 6865,
      "Ġconvert": 6866,
      "Ġflight": 6867,
      "Ġintended": 6868,
      "df": 6869,
      "Ġturns": 6870,
      "was": 6871,
      "Ġpurposes": 6872,
      ".[": 6873,
      "Most": 6874,
      "ĠScott": 6875,
      "Ġcreation": 6876,
      "Ġexcess": 6877,
      "ĠIr": 6878,
      "Ġmeal": 6879,
      "arsh": 6880,
      "Ġconsumer": 6881,
      "Ġbreast": 6882,
      "Ġindeed": 6883,
      "Ġexplained": 6884,
      "TER": 6885,
      "ĠWal": 6886,
      "Ġrealized": 6887,
      "ĠIll": 6888,
      "gas": 6889,
      "ĠĠĠĠĠ": 6890,
      "Ġprocedure": 6891,
      "Ġborder": 6892,
      "Ġsorry": 6893,
      "BS": 6894,
      "Click": 6895,
      "Ġhighlight": 6896,
      "bour": 6897,
      "ĠPass": 6898,
      "Ġimproved": 6899,
      "Ġnoticed": 6900,
      "Ġvehicles": 6901,
      "Tube": 6902,
      "ĠAfrican": 6903,
      "pons": 6904,
      "Ġont": 6905,
      "config": 6906,
      "Ġnavig": 6907,
      "ĠCode": 6908,
      "Inter": 6909,
      "igan": 6910,
      "Ġdass": 6911,
      "anto": 6912,
      "Ġaccommod": 6913,
      "Dr": 6914,
      "ĠAND": 6915,
      "Ġslowly": 6916,
      "Ġinstallation": 6917,
      "ĠWall": 6918,
      "avy": 6919,
      "ĠGal": 6920,
      "Ġsupporting": 6921,
      "ĠPeter": 6922,
      "cknow": 6923,
      "Ġcette": 6924,
      "According": 6925,
      "Ġexpertise": 6926,
      "ĠJud": 6927,
      "ĠTherefore": 6928,
      "ĠLeg": 6929,
      "Ġreturns": 6930,
      "Ġreput": 6931,
      "Ġclothes": 6932,
      "Ġplate": 6933,
      "Ġmassive": 6934,
      "Ġidentified": 6935,
      "Ġshoes": 6936,
      "road": 6937,
      "ĠSeries": 6938,
      "Ass": 6939,
      "Rem": 6940,
      "Ġfundament": 6941,
      "AA": 6942,
      "ighter": 6943,
      "ĠJapanese": 6944,
      "ĠSociety": 6945,
      "ĠLink": 6946,
      "Ġidentity": 6947,
      "uns": 6948,
      "ĠBoth": 6949,
      "Ġindustrial": 6950,
      "Ġhousing": 6951,
      "Ġempty": 6952,
      "ãĥ": 6953,
      "look": 6954,
      "Ġinstalled": 6955,
      "Ġjak": 6956,
      "ĠHy": 6957,
      "){": 6958,
      "Ġaudio": 6959,
      "Ġtur": 6960,
      "Ġlift": 6961,
      "ĠThomas": 6962,
      "Ġscientific": 6963,
      "ograp": 6964,
      "à¸": 6965,
      "Ġcro": 6966,
      "uten": 6967,
      "Ġhur": 6968,
      "Ġremote": 6969,
      "erves": 6970,
      "car": 6971,
      "ĠEU": 6972,
      "achel": 6973,
      "ĠAuthor": 6974,
      "ATE": 6975,
      "Ġrelatively": 6976,
      "emporary": 6977,
      "Ġtells": 6978,
      "Ġimpossible": 6979,
      "Ġfolks": 6980,
      "Ġfoods": 6981,
      "Ġgall": 6982,
      "ĠĠĠĠĠĠĠ": 6983,
      "Ġapproved": 6984,
      "apes": 6985,
      "Since": 6986,
      "Ġmoments": 6987,
      "Ġinterpret": 6988,
      "ulture": 6989,
      "Gener": 6990,
      "ae": 6991,
      "adas": 6992,
      "ĠInstead": 6993,
      "Back": 6994,
      "Dis": 6995,
      "Ġtwice": 6996,
      "she": 6997,
      "Ġvotre": 6998,
      "Ġvital": 6999,
      "Ġdifferen": 7000,
      "190": 7001,
      "Ġvul": 7002,
      "Map": 7003,
      "________________": 7004,
      "Ġstim": 7005,
      "Ġdesigns": 7006,
      "Ġusual": 7007,
      "ono": 7008,
      "ĠAtl": 7009,
      "hus": 7010,
      "Ġpractical": 7011,
      "Ġannounce": 7012,
      "çĦ": 7013,
      "obs": 7014,
      "ĠWestern": 7015,
      "Ġtreated": 7016,
      "ĊĠĠĠĠĠĠĠĠĠĠĠĠĠĠĠĠĠĠĠĠĠĠĠ": 7017,
      "Ġstd": 7018,
      "itÃł": 7019,
      "acer": 7020,
      "Other": 7021,
      "ĠRobert": 7022,
      "Ġteeth": 7023,
      "sole": 7024,
      "ĠAdminist": 7025,
      "Ġclar": 7026,
      "Ġadministr": 7027,
      "Ġlaunched": 7028,
      "Ġarrived": 7029,
      "bles": 7030,
      "Ġmatters": 7031,
      "Ġmm": 7032,
      "Ġreliable": 7033,
      "Ġwealth": 7034,
      "HA": 7035,
      "ĠLeague": 7036,
      "requ": 7037,
      "Ġchest": 7038,
      "Ġuniversity": 7039,
      "%.": 7040,
      "Ġnuc": 7041,
      "ĠKore": 7042,
      "Ġcutting": 7043,
      "Ġtruck": 7044,
      "Ġath": 7045,
      "ĠChamp": 7046,
      "Ġdiam": 7047,
      "Ġliked": 7048,
      "Ġcontrast": 7049,
      "agg": 7050,
      "Ġru": 7051,
      "Ġadvertising": 7052,
      "Ġfly": 7053,
      "pie": 7054,
      "length": 7055,
      "çŁ": 7056,
      "Ġcomponent": 7057,
      "ahr": 7058,
      "vy": 7059,
      "EW": 7060,
      "CL": 7061,
      "çĶŁ": 7062,
      "Ġbread": 7063,
      "Ġphase": 7064,
      "olo": 7065,
      "Gr": 7066,
      "Ġicon": 7067,
      "Ġchicken": 7068,
      "Ġfrequently": 7069,
      "Ġdance": 7070,
      "ĠQuest": 7071,
      "Many": 7072,
      "Good": 7073,
      "otic": 7074,
      "ĠLim": 7075,
      "endar": 7076,
      "][": 7077,
      "Ġjed": 7078,
      "ĠThose": 7079,
      "andon": 7080,
      "ĠEp": 7081,
      "erd": 7082,
      "Art": 7083,
      "azz": 7084,
      "Ġvaluable": 7085,
      "Ġassign": 7086,
      "Ġcharges": 7087,
      "estyle": 7088,
      "esch": 7089,
      "index": 7090,
      "Ġefficiency": 7091,
      "Ġhousehold": 7092,
      "Ġteen": 7093,
      "ĠOil": 7094,
      "ĠCost": 7095,
      "Ġvend": 7096,
      "Ġhorse": 7097,
      "Ġbike": 7098,
      "}$": 7099,
      "Ġproposed": 7100,
      "Ġconstantly": 7101,
      "kins": 7102,
      "ĠAT": 7103,
      "Ġinstructions": 7104,
      "ĠDate": 7105,
      "cons": 7106,
      "Once": 7107,
      "Ġwidth": 7108,
      "Ġlights": 7109,
      "aze": 7110,
      "ĠCasino": 7111,
      "âĢĻ.": 7112,
      "ployment": 7113,
      "ĠJoe": 7114,
      "anche": 7115,
      "ĠBit": 7116,
      "Ġforest": 7117,
      "Ġbear": 7118,
      "ingu": 7119,
      "Ġlit": 7120,
      "ĠDigital": 7121,
      "Ġapproximately": 7122,
      "levision": 7123,
      "Ġdangerous": 7124,
      "ancer": 7125,
      "Ġprivacy": 7126,
      "kes": 7127,
      "Ġroute": 7128,
      "ĠDom": 7129,
      "Ġrough": 7130,
      "writ": 7131,
      "Ġends": 7132,
      "Ġhealthcare": 7133,
      "vas": 7134,
      "oco": 7135,
      "real": 7136,
      "isse": 7137,
      "Ġmuscle": 7138,
      "IO": 7139,
      "adow": 7140,
      "PM": 7141,
      "Ġbare": 7142,
      "Ġcheese": 7143,
      "ormal": 7144,
      "Ġcircumstances": 7145,
      "Ġplatforms": 7146,
      "Ġcrazy": 7147,
      "ĠNor": 7148,
      "ijk": 7149,
      "erest": 7150,
      "Ġcarbon": 7151,
      "Ġinspired": 7152,
      "ĠKnow": 7153,
      "Ġkeeps": 7154,
      "orough": 7155,
      "Ġmissed": 7156,
      "define": 7157,
      "ĠLouis": 7158,
      "180": 7159,
      "Ġmel": 7160,
      "Ġlayer": 7161,
      "arrant": 7162,
      "Ġdelivered": 7163,
      "Ġprison": 7164,
      "iro": 7165,
      "Ġgambling": 7166,
      "Ġturning": 7167,
      "anna": 7168,
      "ATION": 7169,
      "onav": 7170,
      "connect": 7171,
      "Ġgrab": 7172,
      "Ġpicked": 7173,
      "enda": 7174,
      "Ġmechanism": 7175,
      "Ġsono": 7176,
      "Ġaccepted": 7177,
      "Ġdepart": 7178,
      "Ġpra": 7179,
      "Ġhero": 7180,
      "ĠiPhone": 7181,
      "Best": 7182,
      "Ġdestroy": 7183,
      "ĠVideo": 7184,
      "Ġalcohol": 7185,
      "Ġjest": 7186,
      "ĠHistory": 7187,
      "max": 7188,
      "ĠMuseum": 7189,
      "mat": 7190,
      "Ġproof": 7191,
      "Ġhundreds": 7192,
      "Ġspeech": 7193,
      "ushing": 7194,
      "ĠValley": 7195,
      "Ġsituations": 7196,
      "ĠVict": 7197,
      "ĠRight": 7198,
      "Ġren": 7199,
      "Ġfunny": 7200,
      "Fig": 7201,
      "hered": 7202,
      "away": 7203,
      "Ġlad": 7204,
      "blog": 7205,
      "ĠSecret": 7206,
      "Ġdivid": 7207,
      "Ġaffordable": 7208,
      "Ġcute": 7209,
      "ĠTable": 7210,
      "ĠEconom": 7211,
      "Ġpremium": 7212,
      "Ġagreed": 7213,
      "Ġtak": 7214,
      "ç«": 7215,
      "Ġcha": 7216,
      "EE": 7217,
      "aria": 7218,
      "Ġtiss": 7219,
      "Ġoutdoor": 7220,
      "Ġsurprised": 7221,
      "aba": 7222,
      "Ġisol": 7223,
      "build": 7224,
      "Ġprofit": 7225,
      "Ġsumm": 7226,
      "ĠLuc": 7227,
      "Ġinfection": 7228,
      "Ġwitness": 7229,
      "ĠAff": 7230,
      "Ġlunch": 7231,
      "ĠLive": 7232,
      "Ġchose": 7233,
      "Ġhung": 7234,
      "Ġcooking": 7235,
      "ĠRev": 7236,
      "Ġcabin": 7237,
      "Ġgoods": 7238,
      "Ġhabit": 7239,
      "Ġdei": 7240,
      "ĠJim": 7241,
      "gt": 7242,
      "ĠMA": 7243,
      "Ġsupports": 7244,
      "Ġtopics": 7245,
      "Sim": 7246,
      "ĠMinister": 7247,
      "Ġchosen": 7248,
      "ĠON": 7249,
      "Ġnatur": 7250,
      "ample": 7251,
      "Ġhadn": 7252,
      "Ġslots": 7253,
      "Ġgaming": 7254,
      "ican": 7255,
      "Ġwet": 7256,
      "Ġinfrastructure": 7257,
      "Ġelev": 7258,
      "ĠKey": 7259,
      "Att": 7260,
      "');": 7261,
      "79": 7262,
      "Ġmg": 7263,
      "Ġkne": 7264,
      "Ġmonthly": 7265,
      "ĠJose": 7266,
      "Ġdoors": 7267,
      "sembly": 7268,
      "Ġpayments": 7269,
      "Ġdish": 7270,
      "Ġanyway": 7271,
      "\"\"\"": 7272,
      "Ġreplace": 7273,
      "oted": 7274,
      "count": 7275,
      "Ġmotion": 7276,
      "iert": 7277,
      "%)": 7278,
      "raid": 7279,
      "info": 7280,
      "Ġdomain": 7281,
      "Who": 7282,
      "Ġdifferences": 7283,
      "ĠAccount": 7284,
      "Check": 7285,
      "apped": 7286,
      "ted": 7287,
      "flow": 7288,
      "Hand": 7289,
      "Ġworst": 7290,
      "inch": 7291,
      "Ġintent": 7292,
      "Ġgrown": 7293,
      "Ġster": 7294,
      "ĊĠĠĠĠĠĠĠĠĠĠ": 7295,
      "(!": 7296,
      "Ġextract": 7297,
      "Ġvast": 7298,
      "Ġpill": 7299,
      "orders": 7300,
      "abil": 7301,
      "UP": 7302,
      "Ġregularly": 7303,
      "Ġear": 7304,
      "Ġhumans": 7305,
      "oking": 7306,
      "Ġemphas": 7307,
      "Ġhun": 7308,
      "Ġincredible": 7309,
      "Ġpatterns": 7310,
      "Ġgrew": 7311,
      "!!!!": 7312,
      "esh": 7313,
      "Su": 7314,
      "Build": 7315,
      "Ġcommitment": 7316,
      "Ġlau": 7317,
      "Ġcolour": 7318,
      "ĠHen": 7319,
      "Ġmand": 7320,
      "ĠBon": 7321,
      "Ġobjects": 7322,
      "Ġmedicine": 7323,
      "Ġthin": 7324,
      "xture": 7325,
      "Ġauthent": 7326,
      "isters": 7327,
      "Ġterror": 7328,
      "Ġspons": 7329,
      "Ġwird": 7330,
      "ĠWay": 7331,
      "Ġafternoon": 7332,
      "core": 7333,
      "ributes": 7334,
      "jet": 7335,
      "iors": 7336,
      "war": 7337,
      "Ġrisks": 7338,
      "Count": 7339,
      "Ġwheel": 7340,
      "Ġexternal": 7341,
      "Ġfait": 7342,
      "ancial": 7343,
      "ucks": 7344,
      "bra": 7345,
      "Ġspin": 7346,
      "MAIN": 7347,
      "aven": 7348,
      "Ġpositions": 7349,
      "Ġatm": 7350,
      "agra": 7351,
      "iked": 7352,
      "orith": 7353,
      "Ġnurs": 7354,
      "Equ": 7355,
      "Ġchocolate": 7356,
      "ĠJo": 7357,
      "ĠSqu": 7358,
      "legal": 7359,
      "ĠCreat": 7360,
      "bel": 7361,
      "ĠAnother": 7362,
      "Ġpassword": 7363,
      "Ġfeelings": 7364,
      "ĠPot": 7365,
      "Ġtaught": 7366,
      "osc": 7367,
      "UM": 7368,
      "ĠFort": 7369,
      "Ġbegins": 7370,
      "actory": 7371,
      "Ġbirthday": 7372,
      "bur": 7373,
      "Ġih": 7374,
      "Node": 7375,
      "Ġneighborhood": 7376,
      "Ġconstant": 7377,
      "></": 7378,
      "EX": 7379,
      "Ġtechnique": 7380,
      "Ġremaining": 7381,
      "Ġpic": 7382,
      "Ġinstitutions": 7383,
      "Ġprove": 7384,
      "Ġsky": 7385,
      "Ġsynt": 7386,
      "ĠKit": 7387,
      "ĠLas": 7388,
      "Ġseriously": 7389,
      "Ġpil": 7390,
      "Ġtypical": 7391,
      "mi": 7392,
      "itution": 7393,
      "ĠTerm": 7394,
      "oolean": 7395,
      "================": 7396,
      "rior": 7397,
      "Ġincreases": 7398,
      "ä»ĸä»¬": 7399,
      "util": 7400,
      "Ġhall": 7401,
      "iral": 7402,
      "ĠLab": 7403,
      "ĠAsia": 7404,
      "uated": 7405,
      "Ġanxiety": 7406,
      "oved": 7407,
      "Request": 7408,
      "Ġaccurate": 7409,
      "Ġadvoc": 7410,
      "Ġcarefully": 7411,
      "check": 7412,
      "Ġhref": 7413,
      "Ġinvolve": 7414,
      "Ġlegs": 7415,
      "Ġparking": 7416,
      "Ġwatched": 7417,
      "Ġupper": 7418,
      "Step": 7419,
      "Ġgenerate": 7420,
      "Cons": 7421,
      "ĠAp": 7422,
      "lines": 7423,
      "ĠContact": 7424,
      "ĠNext": 7425,
      "leep": 7426,
      "fa": 7427,
      "72": 7428,
      "ifer": 7429,
      "ĠNone": 7430,
      "Ġliquid": 7431,
      "HT": 7432,
      "Ġphotograph": 7433,
      "Ġalla": 7434,
      "ĠTre": 7435,
      "Ġrevealed": 7436,
      "Ġtransition": 7437,
      "Ġswim": 7438,
      "Ġwalls": 7439,
      "Ġbrowser": 7440,
      "Ġsurf": 7441,
      "Ġfacilit": 7442,
      "run": 7443,
      "Ġsight": 7444,
      "CD": 7445,
      "ĠStat": 7446,
      "uing": 7447,
      "ĠSecond": 7448,
      "oli": 7449,
      "ĠWild": 7450,
      "irement": 7451,
      "ĠBlog": 7452,
      "Ġbasically": 7453,
      "ificate": 7454,
      "Ġshouldn": 7455,
      "RL": 7456,
      "Med": 7457,
      "ĠBefore": 7458,
      "Top": 7459,
      "Ġinches": 7460,
      "Ġlosing": 7461,
      "Ġguarantee": 7462,
      "ĠEnergy": 7463,
      "Ġorganic": 7464,
      "Ġol": 7465,
      "æµ": 7466,
      "anti": 7467,
      "Ġspoke": 7468,
      "emp": 7469,
      "Ġcake": 7470,
      "Ġhistorical": 7471,
      "stra": 7472,
      "Ġeducational": 7473,
      "Ġdescribe": 7474,
      "ĠPrem": 7475,
      "ambi": 7476,
      "Ġsuggested": 7477,
      "ĊĊĉĉ": 7478,
      "../": 7479,
      "Ġwra": 7480,
      "Ġgent": 7481,
      "Ġcrime": 7482,
      "ĠCharl": 7483,
      "Ġdistrict": 7484,
      "isch": 7485,
      "ownt": 7486,
      "Ġcapable": 7487,
      "ĠTour": 7488,
      "Ġelig": 7489,
      "berry": 7490,
      "okes": 7491,
      "uest": 7492,
      "Ġsupplement": 7493,
      ".âĢĻ": 7494,
      "Ġgam": 7495,
      "cluded": 7496,
      "Ã©l": 7497,
      "Ġisland": 7498,
      "Date": 7499,
      "Ġregistered": 7500,
      "ĠSar": 7501,
      "Ġobtained": 7502,
      "Ġskill": 7503,
      "rypt": 7504,
      "earning": 7505,
      "fortunately": 7506,
      "Ġdeals": 7507,
      "ila": 7508,
      "Ã®": 7509,
      "Ġpossibility": 7510,
      "Ġplanned": 7511,
      "elles": 7512,
      "æĽ": 7513,
      "Ġcomprehensive": 7514,
      "ĠColl": 7515,
      "umps": 7516,
      "Ġcritic": 7517,
      "xx": 7518,
      "ĠStep": 7519,
      "Ġinvestors": 7520,
      "])": 7521,
      "olved": 7522,
      "lets": 7523,
      "zym": 7524,
      "ulty": 7525,
      "ĠYouTube": 7526,
      "ĠAward": 7527,
      "Ġzero": 7528,
      "Ġboys": 7529,
      "Ġcrucial": 7530,
      "tÃ": 7531,
      "Ġdar": 7532,
      "ĠWilliam": 7533,
      "ĠYO": 7534,
      "ĠSP": 7535,
      "ĠHotel": 7536,
      "Ġreceiving": 7537,
      "gment": 7538,
      "eur": 7539,
      "Ġdont": 7540,
      "BO": 7541,
      "ansion": 7542,
      "Ġrenew": 7543,
      "''": 7544,
      "Free": 7545,
      "Ġmanufacturing": 7546,
      "Ġprocedures": 7547,
      "Context": 7548,
      "Ġrecon": 7549,
      "Ġyesterday": 7550,
      "erts": 7551,
      "oral": 7552,
      "å¦Ĥ": 7553,
      "anish": 7554,
      "Ġacknow": 7555,
      "Start": 7556,
      "æĮ": 7557,
      "Ġdepth": 7558,
      "package": 7559,
      "Table": 7560,
      "://": 7561,
      "Ġconvenient": 7562,
      "CS": 7563,
      "Ġmagic": 7564,
      "ĠCast": 7565,
      "Ġdefend": 7566,
      "west": 7567,
      "ãĤ": 7568,
      "iki": 7569,
      "Great": 7570,
      "ĠDid": 7571,
      "auc": 7572,
      "Ġfighting": 7573,
      "ĠName": 7574,
      "riz": 7575,
      "chi": 7576,
      "ether": 7577,
      "Ġdegrees": 7578,
      "ĠCe": 7579,
      "Ġdrivers": 7580,
      "Ġcommission": 7581,
      "irms": 7582,
      "bro": 7583,
      "Ġcentre": 7584,
      "Ġflowers": 7585,
      "ĠMarketing": 7586,
      "Description": 7587,
      "ĠGar": 7588,
      "ÈĻi": 7589,
      "ĠAR": 7590,
      "ĠGuide": 7591,
      "Ġdistinct": 7592,
      "Ġfilms": 7593,
      "Ġauthority": 7594,
      "ĠUsing": 7595,
      "Ġdelay": 7596,
      "Ġsuc": 7597,
      "Ġnine": 7598,
      "ĠAD": 7599,
      "iverse": 7600,
      "æ´": 7601,
      "ĠHD": 7602,
      "Ġdispos": 7603,
      "Ġcovers": 7604,
      "ĠÃª": 7605,
      "Ġinnovative": 7606,
      "Ġchallenging": 7607,
      "Ġhel": 7608,
      "lights": 7609,
      "Ġassessment": 7610,
      "Ġdiverse": 7611,
      "ĠCert": 7612,
      "plete": 7613,
      "Ġextended": 7614,
      "olec": 7615,
      "Ġofficer": 7616,
      "Ġparticipate": 7617,
      "init": 7618,
      "olar": 7619,
      "ih": 7620,
      "Ġbuildings": 7621,
      "orable": 7622,
      "Ġdropped": 7623,
      "Gl": 7624,
      "Ġdraft": 7625,
      "Ġsig": 7626,
      "iÄĻ": 7627,
      "DOMAIN": 7628,
      "Ġtiny": 7629,
      "Ġmob": 7630,
      "rence": 7631,
      "upid": 7632,
      "ĠHard": 7633,
      "Ġpurs": 7634,
      "Ġsilver": 7635,
      "Ġtested": 7636,
      "çĦ¶": 7637,
      "Ġrig": 7638,
      "ika": 7639,
      "å¤ļ": 7640,
      "ciples": 7641,
      "Ġshares": 7642,
      "Ġcompens": 7643,
      "Ġpersonally": 7644,
      "Ġgrade": 7645,
      "Product": 7646,
      "zed": 7647,
      "Even": 7648,
      "Ġya": 7649,
      "raine": 7650,
      "Call": 7651,
      "Ġcrack": 7652,
      "Ġprompt": 7653,
      "elly": 7654,
      "Ġshit": 7655,
      "arian": 7656,
      "ç¥": 7657,
      "earing": 7658,
      "poration": 7659,
      "Ġreasonable": 7660,
      "Ġgrat": 7661,
      "Ġsomewhere": 7662,
      "Ġelectronic": 7663,
      "oti": 7664,
      "Ġholds": 7665,
      "ĠWin": 7666,
      "angle": 7667,
      "atre": 7668,
      "Ġaffili": 7669,
      "Ġobviously": 7670,
      "Ġcann": 7671,
      "HO": 7672,
      "æīĢ": 7673,
      "Ġcandidates": 7674,
      "ĠFun": 7675,
      "onavirus": 7676,
      "Ġreward": 7677,
      "Ġreaction": 7678,
      "RS": 7679,
      "onder": 7680,
      "ĠÃ¤r": 7681,
      "Ġlistening": 7682,
      "orgeous": 7683,
      "Ġele": 7684,
      "Have": 7685,
      "Ġvert": 7686,
      "nam": 7687,
      "Ġcookies": 7688,
      "ounter": 7689,
      "Sm": 7690,
      "open": 7691,
      "Ġinspect": 7692,
      "ĠGirl": 7693,
      "Ġafraid": 7694,
      "Ġstorm": 7695,
      "Ġrecognize": 7696,
      "Ġmixed": 7697,
      "Ġfacts": 7698,
      "Ġmillions": 7699,
      "gener": 7700,
      "Ġtod": 7701,
      "elcome": 7702,
      "ĠVan": 7703,
      "ĠArts": 7704,
      "Ġfourth": 7705,
      "ĠTown": 7706,
      "MO": 7707,
      "Ġforth": 7708,
      "Ġrecognized": 7709,
      "Ġagg": 7710,
      "Ġconsistent": 7711,
      "Ġplanet": 7712,
      "Ġdepends": 7713,
      "ĠMS": 7714,
      "htt": 7715,
      "ĠFurther": 7716,
      "Ġbat": 7717,
      "Ġfasc": 7718,
      "ĠCy": 7719,
      "62": 7720,
      "Ġdisappoint": 7721,
      "Ġcock": 7722,
      "osphere": 7723,
      "Ġreject": 7724,
      "Ġkiss": 7725,
      "ching": 7726,
      "Ġengineering": 7727,
      "ĠGall": 7728,
      "Ġspaces": 7729,
      "pecific": 7730,
      "Ġhyper": 7731,
      "annels": 7732,
      "Ġfairly": 7733,
      "lie": 7734,
      "ĠHospital": 7735,
      "Ġyellow": 7736,
      "Ġimplementation": 7737,
      "Ġbodies": 7738,
      "ĠCur": 7739,
      "Ġcoast": 7740,
      "Â¿": 7741,
      "mg": 7742,
      "Ġabsor": 7743,
      "inen": 7744,
      "ĠLib": 7745,
      "ĠWhich": 7746,
      "Ġproceed": 7747,
      "start": 7748,
      "Ġguest": 7749,
      "Ġimprovement": 7750,
      "ĠOp": 7751,
      "ĠLibrary": 7752,
      "Ġawareness": 7753,
      "Ġboat": 7754,
      "ĠEt": 7755,
      "Ġjustice": 7756,
      "Ġpit": 7757,
      "Ġfulf": 7758,
      "Ġunable": 7759,
      "Ġsauce": 7760,
      "Ġauthors": 7761,
      "Go": 7762,
      "ãĢĤ\"": 7763,
      "uma": 7764,
      "ĠBu": 7765,
      "Ġsuddenly": 7766,
      "han": 7767,
      "afe": 7768,
      "Ġmanual": 7769,
      "Det": 7770,
      "çĶ¨": 7771,
      "ĠMartin": 7772,
      "Ġeinen": 7773,
      "ĠEll": 7774,
      "iously": 7775,
      "ĠMike": 7776,
      "ĠPoint": 7777,
      "Ġfurniture": 7778,
      "Ġbreakfast": 7779,
      "Ġdiscussed": 7780,
      "Ġmai": 7781,
      "Ġworldwide": 7782,
      "Ġabuse": 7783,
      "Ġunderst": 7784,
      "ailability": 7785,
      "aciones": 7786,
      "Ġsessions": 7787,
      "Model": 7788,
      "Ġvulner": 7789,
      "Ġobserved": 7790,
      "ĠWhether": 7791,
      "ĠMexico": 7792,
      "aus": 7793,
      "Ġcompetitive": 7794,
      "Ð¸": 7795,
      "Ġsobre": 7796,
      "ÅĤa": 7797,
      "Ġpens": 7798,
      "Ġregistration": 7799,
      "Ġdefinition": 7800,
      "Index": 7801,
      "cell": 7802,
      "front": 7803,
      "Ġyounger": 7804,
      "Ġconfirmed": 7805,
      "ĠCentre": 7806,
      "Ġshoulder": 7807,
      "Ġissued": 7808,
      "Ġvisiting": 7809,
      "}}": 7810,
      "Ġattacks": 7811,
      "çİĭ": 7812,
      "ĠpÃ¥": 7813,
      "ĠWatch": 7814,
      "Ġrow": 7815,
      "æĪĲ": 7816,
      "Ġaccessible": 7817,
      "Ġsuccessfully": 7818,
      "Ġconducted": 7819,
      "ĠFederal": 7820,
      "ypes": 7821,
      "ĠJohnson": 7822,
      "Ġcasinos": 7823,
      "Ġmad": 7824,
      "ĠChief": 7825,
      "obby": 7826,
      "Message": 7827,
      "ulf": 7828,
      "åĨĽ": 7829,
      "iders": 7830,
      "Ġrecorded": 7831,
      "rition": 7832,
      "Ġfingers": 7833,
      "Ġpleasure": 7834,
      "star": 7835,
      "Ġagents": 7836,
      "TR": 7837,
      "ĠChildren": 7838,
      "Ġpul": 7839,
      "ĠBible": 7840,
      "quality": 7841,
      "Ġtech": 7842,
      "ĠJun": 7843,
      "Ġhier": 7844,
      "Ġauss": 7845,
      "ĠPage": 7846,
      "Ġfacing": 7847,
      "Image": 7848,
      "Ġpurchased": 7849,
      "ĠProm": 7850,
      "Ġphen": 7851,
      "Ġchief": 7852,
      "Ġsufficient": 7853,
      "Ġsubstant": 7854,
      "otton": 7855,
      "ector": 7856,
      "ĠConference": 7857,
      "å¤©": 7858,
      "Ġbottle": 7859,
      "è¡Į": 7860,
      "Ġcooper": 7861,
      "Ġinterior": 7862,
      "Ġnative": 7863,
      "ĠBox": 7864,
      "Ġresistance": 7865,
      "Ġcriminal": 7866,
      "Br": 7867,
      "ĠkÃ¶n": 7868,
      "ĠCath": 7869,
      "Ġbond": 7870,
      "group": 7871,
      "ĠWas": 7872,
      "cor": 7873,
      "Ġfaire": 7874,
      "ĠHaw": 7875,
      "Ġmoder": 7876,
      "Ġpref": 7877,
      "Ġtall": 7878,
      "TO": 7879,
      "Ġreporting": 7880,
      "Field": 7881,
      "Ġstudio": 7882,
      "Ġillustr": 7883,
      "Ġstands": 7884,
      "oston": 7885,
      "Ġrelief": 7886,
      "sen": 7887,
      "Ġhouses": 7888,
      "aste": 7889,
      "Ġexposure": 7890,
      "ĠAngeles": 7891,
      "61": 7892,
      "istant": 7893,
      "onto": 7894,
      "ĠOl": 7895,
      "ovid": 7896,
      "Off": 7897,
      "ĠSat": 7898,
      "Ġentered": 7899,
      "oding": 7900,
      "Ġpublish": 7901,
      "Ġanymore": 7902,
      "rio": 7903,
      "ĠFig": 7904,
      "Ġhidden": 7905,
      "ĠLu": 7906,
      "Ġliv": 7907,
      "Ġzijn": 7908,
      "Ġnarr": 7909,
      "ĠExecut": 7910,
      "ĠChris": 7911,
      "NS": 7912,
      "ĠRoom": 7913,
      "Ġinvestigation": 7914,
      "rot": 7915,
      "Ġpresentation": 7916,
      "èĢħ": 7917,
      "umes": 7918,
      "Ġeiner": 7919,
      "unn": 7920,
      "claim": 7921,
      "abetes": 7922,
      "Americ": 7923,
      "BI": 7924,
      "ĠUt": 7925,
      "Ġbathroom": 7926,
      "only": 7927,
      "Ġcompr": 7928,
      "ĠKn": 7929,
      "ĠSn": 7930,
      "uto": 7931,
      "User": 7932,
      "ĊĊĠĠĠĠĠĠĠĠĠĠĠ": 7933,
      "Point": 7934,
      "ĊĊĠĠ": 7935,
      "rich": 7936,
      "ĠGeorg": 7937,
      "Ġbetting": 7938,
      "Ġbelieved": 7939,
      "Ġexecutive": 7940,
      "table": 7941,
      "ĠCross": 7942,
      "Ġdrag": 7943,
      "ĠSi": 7944,
      "Ġbuff": 7945,
      "FT": 7946,
      "ĠThus": 7947,
      "Ġnob": 7948,
      "########": 7949,
      "Ġassume": 7950,
      "Ġextensive": 7951,
      "Ġgender": 7952,
      "Ġagencies": 7953,
      "Ġregional": 7954,
      "aten": 7955,
      "ĠPhys": 7956,
      "auf": 7957,
      "Ġfont": 7958,
      "Ġveter": 7959,
      "Mar": 7960,
      "Ġterrit": 7961,
      "63": 7962,
      "folio": 7963,
      "iac": 7964,
      "Ġrestaurants": 7965,
      "Ġhang": 7966,
      "Ġjew": 7967,
      "Ġtrick": 7968,
      "Ġengage": 7969,
      "${": 7970,
      "ĠGra": 7971,
      "Ġrh": 7972,
      "ellen": 7973,
      "ĠNote": 7974,
      "Ġva": 7975,
      "error": 7976,
      "Ġokay": 7977,
      "ĠCook": 7978,
      "Ġresearchers": 7979,
      "ĠMur": 7980,
      "åħ¶": 7981,
      "Ġdemocr": 7982,
      "Ġdram": 7983,
      "Ġlean": 7984,
      "Ġaan": 7985,
      "ĠLee": 7986,
      "Ġraw": 7987,
      "Ġsignal": 7988,
      "Ġhydro": 7989,
      "101": 7990,
      "Ġdad": 7991,
      "Ġmainly": 7992,
      "born": 7993,
      "ifest": 7994,
      "Ġloves": 7995,
      "chaft": 7996,
      "Ġvillage": 7997,
      "Ġcolle": 7998,
      "Ġdesc": 7999,
      "antes": 8000,
      "Ġnormally": 8001,
      "oman": 8002,
      "oup": 8003,
      "Ġterr": 8004,
      "Ġanticip": 8005,
      "akt": 8006,
      "ĠBow": 8007,
      "Ġmeetings": 8008,
      "Ġongoing": 8009,
      "Ġinner": 8010,
      "ĠBoy": 8011,
      "Ġeveryday": 8012,
      "ĠPac": 8013,
      "Ġcandidate": 8014,
      "Ġnoise": 8015,
      "Ġzum": 8016,
      "reference": 8017,
      "edly": 8018,
      "iments": 8019,
      "ĠSports": 8020,
      "rated": 8021,
      "ĠProcess": 8022,
      "Ġpowder": 8023,
      "Ġtomorrow": 8024,
      "utter": 8025,
      "ww": 8026,
      "Ġkm": 8027,
      "Ġsizes": 8028,
      "ensed": 8029,
      "ĠEvent": 8030,
      "Ġguidance": 8031,
      "ĠHelp": 8032,
      "ĠÃº": 8033,
      "Ġpainting": 8034,
      "89": 8035,
      "Ġconscious": 8036,
      "Ġspiritual": 8037,
      "sten": 8038,
      "Ġsel": 8039,
      "olit": 8040,
      "ĠJon": 8041,
      "Ġdelight": 8042,
      "style": 8043,
      "Ġticket": 8044,
      "ĠAS": 8045,
      "py": 8046,
      "å£": 8047,
      "ĠDa": 8048,
      "Ġkann": 8049,
      "Ġaside": 8050,
      "Ġweren": 8051,
      "Ġnetworks": 8052,
      "Ġofficers": 8053,
      "ĠTax": 8054,
      "Vis": 8055,
      "Ġillness": 8056,
      "color": 8057,
      "âĢĻ,": 8058,
      "ĠOrder": 8059,
      "Ġvoc": 8060,
      "è°": 8061,
      "Ġguidelines": 8062,
      "ĠThrough": 8063,
      "ailed": 8064,
      "ĠArab": 8065,
      "aws": 8066,
      "ĠCup": 8067,
      "Ġbedroom": 8068,
      "Ġdent": 8069,
      "Ġquel": 8070,
      "Ġobserv": 8071,
      "Ġexpectations": 8072,
      "Ġoutcomes": 8073,
      "[\"": 8074,
      "stone": 8075,
      "Ġlinked": 8076,
      "ĠSpring": 8077,
      "FC": 8078,
      "Fi": 8079,
      "func": 8080,
      "atoes": 8081,
      "Ġgenu": 8082,
      "ĠCanadian": 8083,
      "Ġbanks": 8084,
      "ĠEss": 8085,
      "Ġmoist": 8086,
      "åıĳ": 8087,
      "Ġsearching": 8088,
      "Ġlips": 8089,
      "Ġtemplate": 8090,
      "Ġportion": 8091,
      "rait": 8092,
      "Ġemployment": 8093,
      "iform": 8094,
      "Ġriver": 8095,
      "Ġlapt": 8096,
      "ĠComments": 8097,
      "ĠMill": 8098,
      "Ġsupplies": 8099,
      "ĠLead": 8100,
      "Ġease": 8101,
      "Ġbasket": 8102,
      "ĠItalian": 8103,
      "ĠMO": 8104,
      "ismo": 8105,
      "eme": 8106,
      "Ġtaxes": 8107,
      "irts": 8108,
      "Ġpossess": 8109,
      "ĠGames": 8110,
      "ĠFollow": 8111,
      "Ġeuro": 8112,
      "ĠTraining": 8113,
      "ĠLook": 8114,
      "Ġfi": 8115,
      "ĠHope": 8116,
      "Ġroutine": 8117,
      "Ġfellow": 8118,
      "Ġmonitoring": 8119,
      "Ġchoosing": 8120,
      "ĠNight": 8121,
      "Ġsolar": 8122,
      "sere": 8123,
      "CP": 8124,
      "Ġinnovation": 8125,
      "ints": 8126,
      "Although": 8127,
      "base": 8128,
      "illy": 8129,
      "ĠAcademy": 8130,
      "ĠNumber": 8131,
      "Ġflav": 8132,
      "exp": 8133,
      "db": 8134,
      "ĠMov": 8135,
      "ĠKen": 8136,
      "Ġaqu": 8137,
      "Ġpromise": 8138,
      "ĠHor": 8139,
      "Ġoverw": 8140,
      "aires": 8141,
      "ĠCarl": 8142,
      "Ġhoping": 8143,
      "ext": 8144,
      "ĠRose": 8145,
      "ifies": 8146,
      "Ġproven": 8147,
      "Ġsoil": 8148,
      "create": 8149,
      "ĠInte": 8150,
      "Ġsubmit": 8151,
      "rog": 8152,
      "Ġsustainable": 8153,
      "ĠComput": 8154,
      "åİ»": 8155,
      "ĠDaniel": 8156,
      "Ġesp": 8157,
      "ĠPR": 8158,
      "formance": 8159,
      "Ġadvis": 8160,
      "Ġsubt": 8161,
      "asant": 8162,
      "foot": 8163,
      "Ġcollaboration": 8164,
      "ĠCH": 8165,
      "ĠSearch": 8166,
      "ĠPenn": 8167,
      "Ġzone": 8168,
      "ĠWeight": 8169,
      "Ġrose": 8170,
      "raction": 8171,
      "ĠmÃªme": 8172,
      "Ġsaved": 8173,
      "GO": 8174,
      "Ġregulations": 8175,
      "Ġcreates": 8176,
      "Ġoh": 8177,
      "forcement": 8178,
      "ĠBal": 8179,
      "Ġsurrounding": 8180,
      "Ġcharged": 8181,
      "ĠMid": 8182,
      "uan": 8183,
      "Ġtickets": 8184,
      "Ġnarrow": 8185,
      "(@": 8186,
      "Ġbeer": 8187,
      "Ġlady": 8188,
      "Her": 8189,
      "è·": 8190,
      "emplate": 8191,
      "Ġoperate": 8192,
      "110": 8193,
      "Ġtub": 8194,
      "Ġforever": 8195,
      "ĠðŁĺ": 8196,
      "ĠExpl": 8197,
      "Ġdealing": 8198,
      "aa": 8199,
      "ographic": 8200,
      "Ġversions": 8201,
      "Ġric": 8202,
      "Ġtelevision": 8203,
      "anno": 8204,
      "åķ": 8205,
      "Ġwarn": 8206,
      "Ġleur": 8207,
      "Ġentreprene": 8208,
      "ãĢĤ(": 8209,
      "resents": 8210,
      "Ġconflict": 8211,
      "Code": 8212,
      "step": 8213,
      "ĠYoung": 8214,
      "iams": 8215,
      "Ġbowl": 8216,
      "%,": 8217,
      "Ġthorough": 8218,
      "Ġreader": 8219,
      "Ġyield": 8220,
      "agues": 8221,
      "Ġwhenever": 8222,
      "Ġchapter": 8223,
      "Ġvie": 8224,
      "Ġtrail": 8225,
      "Ġengagement": 8226,
      "ĠWalk": 8227,
      "Ġmini": 8228,
      "Ġupcoming": 8229,
      "Ġreduction": 8230,
      "Ã¤n": 8231,
      "image": 8232,
      "Ret": 8233,
      "Ġzur": 8234,
      "terior": 8235,
      "äºĭ": 8236,
      "Ġsuffering": 8237,
      "é¢": 8238,
      "ĠFair": 8239,
      "Today": 8240,
      "ĠÈĻi": 8241,
      "Ġtalked": 8242,
      "uffer": 8243,
      "Ġnil": 8244,
      "Ġancient": 8245,
      "ĠVirginia": 8246,
      "Ġresolution": 8247,
      "ĠSpirit": 8248,
      "duction": 8249,
      "uv": 8250,
      "IST": 8251,
      "Ġlikes": 8252,
      "ĠCarolina": 8253,
      "Ġblank": 8254,
      "Ġdomestic": 8255,
      "çľĭ": 8256,
      "rÃ": 8257,
      "Ġeleg": 8258,
      "ikes": 8259,
      "Ġopposite": 8260,
      "Ġsolve": 8261,
      "John": 8262,
      "omy": 8263,
      "ĠContin": 8264,
      "{}": 8265,
      "Ġnel": 8266,
      "organ": 8267,
      "Ġcomparison": 8268,
      "ools": 8269,
      "Ġadds": 8270,
      "Ġreligion": 8271,
      "Ġconfident": 8272,
      "Ġforgot": 8273,
      "Ġdell": 8274,
      ".<": 8275,
      "Ã¤nd": 8276,
      "åĵ": 8277,
      "ĠBed": 8278,
      "ĠShare": 8279,
      "Ġimmig": 8280,
      "imp": 8281,
      "Car": 8282,
      "Ã©g": 8283,
      "ĠShould": 8284,
      "Ġclosely": 8285,
      "Ġpassing": 8286,
      "Ġstuck": 8287,
      "Il": 8288,
      "ĠFestival": 8289,
      "Note": 8290,
      "Before": 8291,
      "KE": 8292,
      "Ġtank": 8293,
      "chain": 8294,
      "iar": 8295,
      "Ġcompare": 8296,
      "ĠTrust": 8297,
      "Ġsed": 8298,
      "Ġpartnership": 8299,
      "ĠktÃ": 8300,
      "Ġrelative": 8301,
      "Ġphr": 8302,
      "rick": 8303,
      "erk": 8304,
      "Ġsuggests": 8305,
      "imer": 8306,
      "Ġinteract": 8307,
      "ennis": 8308,
      "Ut": 8309,
      "ALL": 8310,
      "inking": 8311,
      "ĠLO": 8312,
      "left": 8313,
      "Ġgran": 8314,
      "ribe": 8315,
      "Ġbrill": 8316,
      "ĠAI": 8317,
      "Ġphilosoph": 8318,
      "ĠTem": 8319,
      "ĠLearn": 8320,
      "asta": 8321,
      "Ġhosting": 8322,
      "ĠPolice": 8323,
      "upport": 8324,
      "Ġattorney": 8325,
      "REE": 8326,
      "éĽ": 8327,
      "Ġpapers": 8328,
      "ĠLin": 8329,
      "ĠJeff": 8330,
      "ĠStore": 8331,
      "Ġorigin": 8332,
      "ĠNever": 8333,
      "Ġconserv": 8334,
      "HS": 8335,
      "ugs": 8336,
      "ĠDer": 8337,
      "åīį": 8338,
      "Ġtack": 8339,
      "ytics": 8340,
      "Ġdecent": 8341,
      "rows": 8342,
      "ME": 8343,
      "Ġgrass": 8344,
      "Ġsubsequ": 8345,
      "Ġnode": 8346,
      "Ġdiscipl": 8347,
      "ĠPA": 8348,
      "Ġlucky": 8349,
      "Mon": 8350,
      "Ġcollected": 8351,
      "Ġtone": 8352,
      "Ġpolitics": 8353,
      "Ġwash": 8354,
      "ĠMic": 8355,
      "Ġfer": 8356,
      "Ġreact": 8357,
      "arks": 8358,
      "Ġsomewhat": 8359,
      "Ġinjuries": 8360,
      "Ġfoundation": 8361,
      "Ġcontribute": 8362,
      "CON": 8363,
      "ĠRichard": 8364,
      "ĠSite": 8365,
      "ĠDC": 8366,
      "Ġlip": 8367,
      "roller": 8368,
      "PL": 8369,
      "Ġsum": 8370,
      "Ġintelligence": 8371,
      "ĠTry": 8372,
      "ĠPo": 8373,
      "ĠDog": 8374,
      "mond": 8375,
      "Ġsyn": 8376,
      "è¢": 8377,
      "Ġcatal": 8378,
      "assert": 8379,
      "expected": 8380,
      "arios": 8381,
      "ĠHon": 8382,
      "Ġmountain": 8383,
      "Ġhook": 8384,
      "Ġlifestyle": 8385,
      "stal": 8386,
      "Ġgay": 8387,
      "pc": 8388,
      "Ġmol": 8389,
      "Ġjudge": 8390,
      "ĠaÃ±": 8391,
      "His": 8392,
      "Ġimmediate": 8393,
      "itis": 8394,
      "Ġfigures": 8395,
      "imize": 8396,
      "ĠWorks": 8397,
      "Ġinformed": 8398,
      "ouch": 8399,
      "Ġkom": 8400,
      "ĠPop": 8401,
      "Ġentertainment": 8402,
      "Ġprev": 8403,
      "elta": 8404,
      "æ±": 8405,
      "Ġmask": 8406,
      "Ġprotocol": 8407,
      "oids": 8408,
      "Ġces": 8409,
      "ĠItaly": 8410,
      "Ġenthus": 8411,
      "Ġpercentage": 8412,
      "zes": 8413,
      "ĠModel": 8414,
      "Ġflavor": 8415,
      "char": 8416,
      "Ġultimately": 8417,
      "Ġresulting": 8418,
      ",'": 8419,
      "Spe": 8420,
      "âĪ": 8421,
      "Ġdates": 8422,
      "VD": 8423,
      "child": 8424,
      "èµ·": 8425,
      "ĠPen": 8426,
      "ĠPract": 8427,
      "Color": 8428,
      "ieren": 8429,
      "ĠClean": 8430,
      "ÑĤ": 8431,
      "ĠĠĠĠĠĠ": 8432,
      "ultural": 8433,
      "ĠWrit": 8434,
      "Ġtwenty": 8435,
      "Book": 8436,
      "enger": 8437,
      "Ġparte": 8438,
      "Ġowned": 8439,
      "ÅĤo": 8440,
      "asm": 8441,
      "Ġkl": 8442,
      "dated": 8443,
      "Ġdestination": 8444,
      "eling": 8445,
      "pi": 8446,
      "ĠJones": 8447,
      "lymp": 8448,
      "Ġsplit": 8449,
      "Ġsending": 8450,
      "lywood": 8451,
      "ĠMas": 8452,
      "Ġedition": 8453,
      "Ġinstant": 8454,
      "Ġsheet": 8455,
      "hew": 8456,
      "Ġcompat": 8457,
      "made": 8458,
      "Ċĉĉĉĉĉĉ": 8459,
      "has": 8460,
      "Ġwithdraw": 8461,
      "Array": 8462,
      "æĹ¥": 8463,
      "Ġalive": 8464,
      "Ġexplan": 8465,
      "stein": 8466,
      "Ġformed": 8467,
      "Ġhardware": 8468,
      "quir": 8469,
      "äºĽ": 8470,
      "Ġletters": 8471,
      "holders": 8472,
      "alo": 8473,
      "ĠPlace": 8474,
      "Ġhonor": 8475,
      "Ġquote": 8476,
      "ĠBudd": 8477,
      "Ġanche": 8478,
      "Ġstrange": 8479,
      "Ġrou": 8480,
      "Ġstruggle": 8481,
      "Ġnecessarily": 8482,
      "fall": 8483,
      "å®¶": 8484,
      "Ġremark": 8485,
      "ogether": 8486,
      "Ġmerc": 8487,
      "Ġshooting": 8488,
      "Ġauthorities": 8489,
      "Ġinstrument": 8490,
      "ĠFarm": 8491,
      "Ġapartment": 8492,
      "Ġax": 8493,
      "ERS": 8494,
      "ĠCP": 8495,
      "Ġgear": 8496,
      "Ġeinem": 8497,
      "Ġpero": 8498,
      "angers": 8499,
      "Ġcampus": 8500,
      "Ġdebate": 8501,
      "width": 8502,
      "Ġleather": 8503,
      "Ġdust": 8504,
      "æ¬": 8505,
      "Ġoriginally": 8506,
      "Ġconcrete": 8507,
      "Ġexistence": 8508,
      "object": 8509,
      "Ġexclusive": 8510,
      "icity": 8511,
      "Ġtrained": 8512,
      "iences": 8513,
      "iginal": 8514,
      "Ġdrawing": 8515,
      "ĠPak": 8516,
      "label": 8517,
      "GA": 8518,
      "æģ": 8519,
      "ĠUr": 8520,
      "ĠAgain": 8521,
      "ĠMcC": 8522,
      "break": 8523,
      "Ġinspiration": 8524,
      "wered": 8525,
      "Ġrepresents": 8526,
      "ĠLittle": 8527,
      "ĠSometimes": 8528,
      "anguages": 8529,
      "Ġincredibly": 8530,
      "Ġimpressive": 8531,
      "Ġimproving": 8532,
      "Ã¬": 8533,
      "Ġnaturally": 8534,
      "Ġfinger": 8535,
      "Ġreform": 8536,
      "making": 8537,
      "Ġpotentially": 8538,
      "Ġcontr": 8539,
      "ĠProfessor": 8540,
      "Ġwarrant": 8541,
      "ĠÎ": 8542,
      "``": 8543,
      "Ġappointment": 8544,
      "Ġcareful": 8545,
      "astern": 8546,
      "othe": 8547,
      "ahl": 8548,
      "Ġincident": 8549,
      "Ġgifts": 8550,
      "Ġtradition": 8551,
      "Ġordered": 8552,
      "names": 8553,
      "Ġrepeated": 8554,
      "Ġathlet": 8555,
      "97": 8556,
      "SI": 8557,
      "ĠWebsite": 8558,
      "Ġcausing": 8559,
      "Ġstake": 8560,
      "Ġdecade": 8561,
      "ĠAustralian": 8562,
      "friendly": 8563,
      "Ġwave": 8564,
      "Ġdurch": 8565,
      "ped": 8566,
      "Ġstable": 8567,
      "Ġtent": 8568,
      "Ġuma": 8569,
      "Ġpeut": 8570,
      "Ġseed": 8571,
      "Ġextent": 8572,
      "ĠIre": 8573,
      "ĠSE": 8574,
      "block": 8575,
      "Ġarrang": 8576,
      "Ġreplacement": 8577,
      "Ġvel": 8578,
      "Ġrecommendations": 8579,
      "ĠTurn": 8580,
      "atie": 8581,
      "Ġgrant": 8582,
      "Ġgenerated": 8583,
      "Ġdiseases": 8584,
      "ĠNa": 8585,
      "Ġflour": 8586,
      "Ġgorgeous": 8587,
      "Ġdism": 8588,
      "Ġregardless": 8589,
      "rug": 8590,
      "Wind": 8591,
      "ĠCond": 8592,
      "Ġfinance": 8593,
      "ĠOk": 8594,
      "acher": 8595,
      "uri": 8596,
      "Ġscholars": 8597,
      "ĠÃªtre": 8598,
      "Ċĉĉĉĉĉ": 8599,
      "Ġequival": 8600,
      "idays": 8601,
      "Ġfault": 8602,
      "ĠSmart": 8603,
      "Ġdining": 8604,
      "dev": 8605,
      "({": 8606,
      "OK": 8607,
      "zione": 8608,
      "Ġframework": 8609,
      "ds": 8610,
      "Ġsubscrib": 8611,
      "worth": 8612,
      "ĠBall": 8613,
      "Ġtow": 8614,
      "ĠTravel": 8615,
      "Ġcoc": 8616,
      "iere": 8617,
      "Ġchances": 8618,
      "ÃŃt": 8619,
      "Ġstrict": 8620,
      "Je": 8621,
      "Ġwhis": 8622,
      "Ġriv": 8623,
      "Ġalgorith": 8624,
      "Ġappeal": 8625,
      "Ġwidely": 8626,
      "Ġembr": 8627,
      "teen": 8628,
      "ĠSales": 8629,
      "Ġheads": 8630,
      "Ġstro": 8631,
      "rij": 8632,
      "athan": 8633,
      "Die": 8634,
      "uling": 8635,
      "Ġkan": 8636,
      "ĠCat": 8637,
      "Ġmoves": 8638,
      "æĹł": 8639,
      "udes": 8640,
      "ĠFac": 8641,
      "dep": 8642,
      "Ġjava": 8643,
      "ĠLow": 8644,
      "Ġelle": 8645,
      "Ġgli": 8646,
      "ĠYet": 8647,
      "Love": 8648,
      "ĠEngineering": 8649,
      "çļĦç": 8650,
      "ĠJackson": 8651,
      "ĠIde": 8652,
      "Ġextreme": 8653,
      "acking": 8654,
      "Ġneut": 8655,
      "Ġtrends": 8656,
      "Ġages": 8657,
      "Ġmusical": 8658,
      "Ġreferred": 8659,
      "ĠDetails": 8660,
      "Direct": 8661,
      "Ġfeatured": 8662,
      "ĠPut": 8663,
      "RC": 8664,
      "etch": 8665,
      "Ġdesired": 8666,
      "Ġbroke": 8667,
      "Ġbene": 8668,
      "Ġroles": 8669,
      "ĠReviews": 8670,
      "ĠSelect": 8671,
      "Ġliterally": 8672,
      "utch": 8673,
      "Ġcin": 8674,
      "orters": 8675,
      "abs": 8676,
      "Ġaussi": 8677,
      "bet": 8678,
      "source": 8679,
      "uous": 8680,
      "Ġalign": 8681,
      "Ġorganized": 8682,
      "ategory": 8683,
      "Ġnearby": 8684,
      "Ġbunch": 8685,
      "uje": 8686,
      "Ġcontest": 8687,
      "Ġagric": 8688,
      "Ġrating": 8689,
      "Ġhire": 8690,
      "isted": 8691,
      "Ġnic": 8692,
      "ĠSpanish": 8693,
      "Ġhasn": 8694,
      "Net": 8695,
      "Ġinject": 8696,
      "item": 8697,
      "Ġrein": 8698,
      "ĠYeah": 8699,
      "Ġcapture": 8700,
      "roph": 8701,
      "ĠLine": 8702,
      "Ġgre": 8703,
      "ĠRa": 8704,
      "ĠMiddle": 8705,
      "ĠArea": 8706,
      "eries": 8707,
      "Ġprimarily": 8708,
      "Ġharder": 8709,
      "ĠAL": 8710,
      "SD": 8711,
      "erman": 8712,
      "Ġevil": 8713,
      "Gu": 8714,
      "ĠCreate": 8715,
      "Ġcable": 8716,
      "ĠReturn": 8717,
      "Ġformal": 8718,
      "Ġestimated": 8719,
      "haust": 8720,
      "Ġlimits": 8721,
      "ä¸İ": 8722,
      "wind": 8723,
      "TP": 8724,
      "Ġgentle": 8725,
      "QL": 8726,
      "Hel": 8727,
      "inent": 8728,
      "ellect": 8729,
      "ĠRen": 8730,
      "Ġstupid": 8731,
      "nÄĽ": 8732,
      "onic": 8733,
      "ĠFinancial": 8734,
      "Ġtourn": 8735,
      "lichen": 8736,
      "ansas": 8737,
      "Ġurban": 8738,
      "Ġcodes": 8739,
      "Ġads": 8740,
      "Ġq": 8741,
      "uct": 8742,
      "ĠClin": 8743,
      "args": 8744,
      "Ġamounts": 8745,
      "Ġoverwhel": 8746,
      "TY": 8747,
      "Ġwinner": 8748,
      "static": 8749,
      "Ġextension": 8750,
      "Ġbool": 8751,
      "Ġstom": 8752,
      ".</": 8753,
      "ĠBes": 8754,
      "Ġintegrated": 8755,
      "ktop": 8756,
      "Ġattached": 8757,
      "åĢ": 8758,
      "Ġserves": 8759,
      "ĠFar": 8760,
      "Ġyours": 8761,
      "ĠFall": 8762,
      "Ġclothing": 8763,
      "Ġdiscl": 8764,
      "Ġupload": 8765,
      "Ġadventure": 8766,
      "Ġlessons": 8767,
      "Ġusage": 8768,
      "ĠDO": 8769,
      "Ġbis": 8770,
      "Ġmemories": 8771,
      "ĠEnvironment": 8772,
      "Ġdrinking": 8773,
      "Ġformula": 8774,
      "ĠWordPress": 8775,
      "ĠCharles": 8776,
      "ĠFriend": 8777,
      "Ġblind": 8778,
      "Next": 8779,
      "Ġnoch": 8780,
      "Ġgel": 8781,
      "Ġlect": 8782,
      "ucky": 8783,
      "Ġsuspect": 8784,
      "Ġrecipes": 8785,
      "Ġdevelopers": 8786,
      "ĠâĨ": 8787,
      "ĠBoston": 8788,
      "Ġtonight": 8789,
      "Ġtrem": 8790,
      "Ġwondering": 8791,
      "izza": 8792,
      "Ġprinciples": 8793,
      "ĠConf": 8794,
      "Ġgotten": 8795,
      "ĠIran": 8796,
      "ĠVill": 8797,
      "Because": 8798,
      "asts": 8799,
      "Ġloud": 8800,
      "being": 8801,
      "enders": 8802,
      "Ġgolf": 8803,
      ":(": 8804,
      "oute": 8805,
      "ceived": 8806,
      "Ġdynamic": 8807,
      "Ġstrategic": 8808,
      "Ġunderstood": 8809,
      "Ġexists": 8810,
      "Ġflood": 8811,
      "Ġdelle": 8812,
      "Ġstyles": 8813,
      "ugar": 8814,
      "words": 8815,
      "Ġscan": 8816,
      "aud": 8817,
      "Ġvacation": 8818,
      "aping": 8819,
      "æ¸": 8820,
      "FI": 8821,
      "Ġfu": 8822,
      "Ge": 8823,
      "Ġhealing": 8824,
      "gypt": 8825,
      "iu": 8826,
      "Ġshower": 8827,
      "ĠMuslim": 8828,
      "ĠRoyal": 8829,
      "iente": 8830,
      "river": 8831,
      "Ġmanaging": 8832,
      "Ġbacter": 8833,
      "Ġflexible": 8834,
      "ĠUlt": 8835,
      "è¿ĺ": 8836,
      "Ġdreams": 8837,
      "Ġcounsel": 8838,
      "lessly": 8839,
      "ĠPersonal": 8840,
      "Ġvisible": 8841,
      "Custom": 8842,
      "Ġrice": 8843,
      "Ġfundamental": 8844,
      "ĠJac": 8845,
      "Ġpermanent": 8846,
      "Ġprospect": 8847,
      "ĠRun": 8848,
      "çŃ": 8849,
      "oves": 8850,
      "Ġdesk": 8851,
      "Ġconnections": 8852,
      "Ġcategories": 8853,
      "Ġcalm": 8854,
      "ĠMeet": 8855,
      "Ġsans": 8856,
      "itage": 8857,
      "æŃ¤": 8858,
      "Ġsucceed": 8859,
      "ĠSystems": 8860,
      "version": 8861,
      "Ġkon": 8862,
      "ĠFrancisco": 8863,
      "Ġerrors": 8864,
      "Ġneither": 8865,
      "wan": 8866,
      "Ġborrow": 8867,
      "Ġdefe": 8868,
      "Ġscheduled": 8869,
      "Ġearned": 8870,
      "ĠExecutive": 8871,
      "vision": 8872,
      "Ġlandscape": 8873,
      "Ġtired": 8874,
      "ĠMP": 8875,
      "brid": 8876,
      "Ġpeu": 8877,
      "oro": 8878,
      "oda": 8879,
      "Ġexpenses": 8880,
      "ĠAsian": 8881,
      "Ġchart": 8882,
      "Ġcharm": 8883,
      "zil": 8884,
      "Ġthro": 8885,
      "Ġgummies": 8886,
      "Ġoutcome": 8887,
      "Ġmortgage": 8888,
      "+=": 8889,
      "Ġfavourite": 8890,
      "nÃ©": 8891,
      "ĠDark": 8892,
      "Ġlighting": 8893,
      "Ġachieved": 8894,
      "Ġremained": 8895,
      "inity": 8896,
      "Ġpoker": 8897,
      "Ġwriters": 8898,
      "Ġchannels": 8899,
      "æł·": 8900,
      "ĠDam": 8901,
      "ĠSale": 8902,
      "Ġinvolves": 8903,
      "ĠestÃ¡": 8904,
      "mos": 8905,
      "Ġcommonly": 8906,
      "ĠVery": 8907,
      "Liked": 8908,
      "aha": 8909,
      "Ġpink": 8910,
      "Ġpersons": 8911,
      "Ġbutt": 8912,
      "Ġflash": 8913,
      "Ġmood": 8914,
      "Ġsetup": 8915,
      "Ġfishing": 8916,
      "atz": 8917,
      "Ġmeals": 8918,
      "Ġeverywhere": 8919,
      "ande": 8920,
      "Ġfaces": 8921,
      "Ġatmosphere": 8922,
      "Ġcelebrate": 8923,
      "Ġreducing": 8924,
      "Ġtox": 8925,
      "87": 8926,
      "gie": 8927,
      "comfort": 8928,
      "Ġpel": 8929,
      "^{": 8930,
      "Find": 8931,
      "aka": 8932,
      "ĠStill": 8933,
      "ĠSoftware": 8934,
      "Ġza": 8935,
      "éļ": 8936,
      "html": 8937,
      "ĠLtd": 8938,
      "ĠAutom": 8939,
      "ĠSanta": 8940,
      ":-": 8941,
      "fÃ": 8942,
      "Ġregions": 8943,
      "Ġstronger": 8944,
      "pes": 8945,
      "ĠNeed": 8946,
      "DP": 8947,
      "SW": 8948,
      "Group": 8949,
      "Ġarts": 8950,
      "Ġfindings": 8951,
      "Ġnewsp": 8952,
      "ĠLA": 8953,
      "Fil": 8954,
      "ACT": 8955,
      "ĠSuch": 8956,
      "Ġpreferred": 8957,
      "Ġfest": 8958,
      "ĠNULL": 8959,
      "Ġexpressed": 8960,
      "yard": 8961,
      "ĠEin": 8962,
      "ĠPDF": 8963,
      "ĠAC": 8964,
      "Ġplot": 8965,
      "Ġexplains": 8966,
      "ĠSmall": 8967,
      "Ġacceler": 8968,
      "Ġgut": 8969,
      "Ġdit": 8970,
      "ĠQueen": 8971,
      "ĠMachine": 8972,
      "ologist": 8973,
      "Ġsharp": 8974,
      "Ġsuperior": 8975,
      "aylor": 8976,
      "eras": 8977,
      "Ġratio": 8978,
      "Ġsensitive": 8979,
      "ogy": 8980,
      "Ġcel": 8981,
      "ĠUser": 8982,
      "âĢĶâĢĶâĢĶâĢĶ": 8983,
      "Ġconsumption": 8984,
      "Ġeggs": 8985,
      "tw": 8986,
      "Ġvibr": 8987,
      "Ġpointed": 8988,
      "Ġjun": 8989,
      "Ġcounty": 8990,
      "ĠMrs": 8991,
      "ummy": 8992,
      "aza": 8993,
      "Ġcrew": 8994,
      "ç§į": 8995,
      "Min": 8996,
      "Ġillegal": 8997,
      "lier": 8998,
      "Ġhaben": 8999,
      "Ġunl": 9000,
      "itate": 9001,
      "Ġconcer": 9002,
      "ĠMaterial": 9003,
      "ĠThree": 9004,
      "ĠMobile": 9005,
      "Ġnegoti": 9006,
      "amber": 9007,
      "700": 9008,
      "Ġdirected": 9009,
      "ĠSup": 9010,
      "Ġstead": 9011,
      "uture": 9012,
      "Ġbab": 9013,
      "ront": 9014,
      "aya": 9015,
      "ership": 9016,
      "rection": 9017,
      "Ġacting": 9018,
      "ĠFile": 9019,
      "Ġniet": 9020,
      "arry": 9021,
      "ĠOS": 9022,
      "aints": 9023,
      "iste": 9024,
      "Ġrising": 9025,
      "Ġfitness": 9026,
      "model": 9027,
      "Ġcommittee": 9028,
      "ĠInsurance": 9029,
      "Will": 9030,
      "Ġcharacteristics": 9031,
      "Ġprogramme": 9032,
      "Ġlegit": 9033,
      "Manager": 9034,
      "èĪ": 9035,
      "bing": 9036,
      "tery": 9037,
      "Ġparameters": 9038,
      "ĠWilliams": 9039,
      "Ġmerely": 9040,
      "Ġsamples": 9041,
      "160": 9042,
      "Ġdess": 9043,
      "Ġcontrols": 9044,
      "DR": 9045,
      "ĠSteve": 9046,
      "awa": 9047,
      "Ġnuclear": 9048,
      "Ã¡t": 9049,
      "Sl": 9050,
      "Ġstructures": 9051,
      "cut": 9052,
      "rac": 9053,
      "lem": 9054,
      "Ġpleased": 9055,
      "Ġsacr": 9056,
      "Ġeligible": 9057,
      "ĠSpace": 9058,
      "Jan": 9059,
      "Ġcomplicated": 9060,
      "LikeLiked": 9061,
      "Ġweekly": 9062,
      "Ġsurprising": 9063,
      "Ġincreasingly": 9064,
      "ĠEN": 9065,
      "Ġcher": 9066,
      "roduction": 9067,
      "Ġfunctional": 9068,
      "Ġreputation": 9069,
      "Ġgard": 9070,
      "Ġvictory": 9071,
      "Ġdefine": 9072,
      "position": 9073,
      "åģ": 9074,
      "ĠCloud": 9075,
      "\"><": 9076,
      "ĠChair": 9077,
      "ĠLearning": 9078,
      "Ġprime": 9079,
      "ĠStudies": 9080,
      "FO": 9081,
      "Ġrequests": 9082,
      "Ġblocks": 9083,
      "ĠTri": 9084,
      "Ġmembership": 9085,
      "Ġlets": 9086,
      "Ġdoctors": 9087,
      "Download": 9088,
      "Ġconsideration": 9089,
      "Ġcriteria": 9090,
      "world": 9091,
      "Ġoccurred": 9092,
      "Ġduty": 9093,
      "Ġfond": 9094,
      "itals": 9095,
      "Ġnas": 9096,
      "urop": 9097,
      "éĿ¢": 9098,
      "Ġdeck": 9099,
      "æĪĺ": 9100,
      "130": 9101,
      "Stud": 9102,
      "bow": 9103,
      "Ġbags": 9104,
      "eping": 9105,
      "Select": 9106,
      "ĠAus": 9107,
      "ä»İ": 9108,
      "yes": 9109,
      "ĠIra": 9110,
      "Ġmanufacturer": 9111,
      "ĠHim": 9112,
      "ĠHT": 9113,
      "etry": 9114,
      "Ġcontro": 9115,
      "Ġye": 9116,
      "Cal": 9117,
      "Ġfalling": 9118,
      "ĠTal": 9119,
      "Ġpriority": 9120,
      "ĠSus": 9121,
      "Ã©ri": 9122,
      "ĠMedicine": 9123,
      "Ġchecking": 9124,
      "ĠSEO": 9125,
      "clude": 9126,
      "anes": 9127,
      "Contact": 9128,
      "Use": 9129,
      "apore": 9130,
      "ĠSize": 9131,
      "Ġcapabilities": 9132,
      "enza": 9133,
      "current": 9134,
      "Ġflag": 9135,
      "Ġrail": 9136,
      "Ġreply": 9137,
      "ourse": 9138,
      "ificial": 9139,
      "ĠdÃ©c": 9140,
      "æĪĳä»¬": 9141,
      "Ġattractive": 9142,
      "ĠStock": 9143,
      "node": 9144,
      "ĠCa": 9145,
      "UI": 9146,
      "ĠIh": 9147,
      "Ġesta": 9148,
      "Ġcz": 9149,
      "Ġantib": 9150,
      "ĠBob": 9151,
      "Ġthousand": 9152,
      "ĠUnivers": 9153,
      "éķ": 9154,
      "Ġcommunicate": 9155,
      "oat": 9156,
      "ĠFour": 9157,
      "Ġwest": 9158,
      "letter": 9159,
      "ixed": 9160,
      "gged": 9161,
      "Ġperforming": 9162,
      "aded": 9163,
      "Ġorient": 9164,
      "Ġnose": 9165,
      "sch": 9166,
      "Ġlogo": 9167,
      "unicip": 9168,
      "Ġknock": 9169,
      "ĠRoll": 9170,
      "inda": 9171,
      "tra": 9172,
      "ajÄħ": 9173,
      "Ġkil": 9174,
      "MC": 9175,
      "Ġhole": 9176,
      "ĠMap": 9177,
      "ylv": 9178,
      "iami": 9179,
      "Ġdownt": 9180,
      "ĠOlymp": 9181,
      "Ġexposed": 9182,
      "Ġstreets": 9183,
      "etary": 9184,
      "Ġhide": 9185,
      "liche": 9186,
      "Ext": 9187,
      "86": 9188,
      "izar": 9189,
      "yers": 9190,
      "ĠField": 9191,
      "Ġaccomplish": 9192,
      "Ġguarante": 9193,
      "ĠMir": 9194,
      "ounded": 9195,
      "intage": 9196,
      "asse": 9197,
      "Ġapproval": 9198,
      "Ġaccord": 9199,
      "Ġvaccine": 9200,
      "Ġlies": 9201,
      "Ġwis": 9202,
      "Ġtreatments": 9203,
      "section": 9204,
      "api": 9205,
      "ĠSilver": 9206,
      "Ġreplaced": 9207,
      "ova": 9208,
      "ĠkÃ¶nnen": 9209,
      "Ġtalks": 9210,
      "Ġsaving": 9211,
      "Ġprincipal": 9212,
      "mal": 9213,
      "ĠMichigan": 9214,
      "During": 9215,
      "pay": 9216,
      "Each": 9217,
      "ĠBul": 9218,
      "ionship": 9219,
      "ĠSci": 9220,
      "bie": 9221,
      "wi": 9222,
      "Ġstrengthen": 9223,
      "Ġenjoying": 9224,
      "Ġstored": 9225,
      "ĠIreland": 9226,
      "riers": 9227,
      "cie": 9228,
      "ĠBrand": 9229,
      "Ġfucking": 9230,
      "Ġliterature": 9231,
      "Ġacts": 9232,
      "Ġadvantages": 9233,
      "Ġlawyer": 9234,
      "ĠLE": 9235,
      "input": 9236,
      "amps": 9237,
      "Ġengaged": 9238,
      "Ġinsight": 9239,
      "Ġweird": 9240,
      "Ġclimb": 9241,
      "enter": 9242,
      "enny": 9243,
      "åŁ": 9244,
      "TV": 9245,
      "orce": 9246,
      "Ġstatements": 9247,
      "Ġasset": 9248,
      "Ġmanufacturers": 9249,
      "ĠÃ©tÃ©": 9250,
      "Ġwanting": 9251,
      "Ġminimal": 9252,
      "Ġboxes": 9253,
      "Ġps": 9254,
      "Eng": 9255,
      "Ġpubl": 9256,
      "amil": 9257,
      "Ġarrive": 9258,
      "ç¬": 9259,
      "å§": 9260,
      "Ġvisited": 9261,
      "ĠText": 9262,
      "Ġextends": 9263,
      "Ġpushed": 9264,
      "ä¸Ģä¸ª": 9265,
      "Ġweapons": 9266,
      "Ġmagazine": 9267,
      "èĭ": 9268,
      "Ġnou": 9269,
      "ventional": 9270,
      "Ġevaluation": 9271,
      "ĠJewish": 9272,
      "ĠJava": 9273,
      "ĠTreat": 9274,
      "ĠPsych": 9275,
      "Ġmodule": 9276,
      "rops": 9277,
      "Ġemotions": 9278,
      "Ġstunning": 9279,
      "Ġsomehow": 9280,
      "CR": 9281,
      "Ġportfolio": 9282,
      "Ġescape": 9283,
      "Ġpocket": 9284,
      "Ġleague": 9285,
      "Ġdan": 9286,
      "ĠBad": 9287,
      "Ġbij": 9288,
      "ĠJustice": 9289,
      "proof": 9290,
      "Ġrecover": 9291,
      "Ġluxury": 9292,
      "ĠNiger": 9293,
      "pha": 9294,
      "ç»ı": 9295,
      "Ġgonna": 9296,
      "este": 9297,
      "Ġpodcast": 9298,
      "ĠLocal": 9299,
      "Ġoutstanding": 9300,
      "(&": 9301,
      "ĠUSB": 9302,
      "ials": 9303,
      "Ġsavings": 9304,
      "Override": 9305,
      "ĠFA": 9306,
      "Ġmatches": 9307,
      "Ġpresents": 9308,
      "(\\": 9309,
      "ÑĢ": 9310,
      "Ġtum": 9311,
      "enz": 9312,
      "anny": 9313,
      "ulating": 9314,
      "Ġconsequences": 9315,
      "Ġcontrolled": 9316,
      "unes": 9317,
      "abeth": 9318,
      "Ġdepression": 9319,
      "åĲĮ": 9320,
      "Ġrecording": 9321,
      "acon": 9322,
      "Status": 9323,
      "beit": 9324,
      "istance": 9325,
      "Ġcarrying": 9326,
      "Work": 9327,
      "ented": 9328,
      "INE": 9329,
      "Ġunknown": 9330,
      "spe": 9331,
      "AND": 9332,
      "High": 9333,
      "olid": 9334,
      "site": 9335,
      "Ġbridge": 9336,
      "rives": 9337,
      "ĠSouthern": 9338,
      "Follow": 9339,
      "Ġapparently": 9340,
      "Ġshell": 9341,
      "ĠSex": 9342,
      "........": 9343,
      "ĠRh": 9344,
      "UB": 9345,
      "Ġcontaining": 9346,
      "ĠMethod": 9347,
      "ĠDar": 9348,
      "Ġdose": 9349,
      "Ġhandling": 9350,
      "bered": 9351,
      "owed": 9352,
      "ateful": 9353,
      "End": 9354,
      "hist": 9355,
      "Ġdeeply": 9356,
      "Ver": 9357,
      "istent": 9358,
      "Ġevolution": 9359,
      "dir": 9360,
      "Ġfirms": 9361,
      "Ġtransaction": 9362,
      "Client": 9363,
[...]
